#version: 0.2
e n</w>
e r
t h
i n
c h
e n
u n
e r</w>
a n
t i
th e</w>
r e
i s
o n</w>
d i
o n
o r
l i
a r
c h</w>
i n</w>
e s
e s</w>
r o
a l
i t
d er</w>
s i
s t
di e</w>
o f</w>
e l
t o</w>
a u
e in
a t
w i
an d</w>
i s</w>
a t</w>
o m
e i
un d</w>
d en</w>
a s</w>
r a
b e
e d</w>
s ch
un g</w>
o u
in g</w>
m en
g e
a ti
a n</w>
g en</w>
a s
d e
p o
l e
a b
r i
u s
a l</w>
o r</w>
u r
o l
t e</w>
v er
th at</w>
t en</w>
ro p
i ch
om m
v e</w>
d er
u rop
i t</w>
t er
p ro
e h
ch en</w>
f ü
l e</w>
n o
z u</w>
E urop
w h
i ch</w>
e c
l y</w>
t s</w>
d en
men t</w>
g e</w>
a m
f f
s p
e m
l a
ti on</w>
f or</w>
T h
s u
ati on</w>
h r
is t</w>
g en
fü r</w>
c on
z u
w er
c i
d e</w>
ich t</w>
po s
v on</w>
h a
b e</w>
g i
di es
ein e</w>
d a
a c
w e
n e
t z
o p
omm is
s e
V er
si on</w>
f or
ei t</w>
U n
th is</w>
t e
b er</w>
ar e</w>
w e</w>
c e</w>
d es</w>
v i
i e</w>
ch e</w>
l d</w>
p or
as s</w>
au f</w>
l o
b er
d ass</w>
d as</w>
g es
s o</w>
li ch</w>
m a
wi r</w>
on s</w>
n icht</w>
no t</w>
S t
q u
un gen</w>
s e</w>
u l
ou ld</w>
i m
en t
wi r
si den
s h
er e</w>
e m</w>
is chen</w>
ha ve</w>
e d
ommis sion</w>
i on</w>
l l</w>
a h
wer den</w>
it h</w>
a g
s en</w>
s t</w>
c o
ä n
a f
e x
un g
P ar
i l
el l
w ith</w>
a r</w>
e an</w>
R e
m it</w>
i m</w>
a pos
& apos
w or
z i
wh ich</w>
de m</w>
m en</w>
r u
e it
Europ ean</w>
c om
t a
i g
b es
r ä
k e</w>
t er</w>
an d
po li
u m</w>
ti m
s o
wi ll</w>
h ab
al l</w>
au ch</w>
Th e</w>
at e</w>
e in</w>
t u
s in
n en</w>
re s
b y</w>
I n
A n
siden t</w>
ung s
i r
o t
d u
Un ion</w>
H er
c k
a d
u t</w>
t ra
ati on
ch t</w>
al s</w>
sch af
ü r
ou r</w>
B e
h as</w>
p ar
m e
s a
li e
B er
m us
au s
h al
m o
si ch</w>
en t</w>
i e
wir d</w>
I ch</w>
ü ber</w>
s er
E n
v or
u t
s ol
u m
hab en</w>
a p
w as</w>
D ie</w>
w en
li t
g li
h at</w>
wi e</w>
sin d</w>
th er</w>
Europ ä
i r</w>
g t</w>
f in
ein er</w>
ch t
it y</w>
F ra
M r</w>
al l
M it
r an
g h
ur e</w>
P re
m e</w>
al so</w>
m ö
ä r
d ar
P ro
t ri
por t</w>
ti on
f i
g er
poli ti
S ch
ou t</w>
p e
ch te</w>
A r
b en</w>
at es</w>
eh r</w>
g r
men ts</w>
ein en</w>
A us
g an
C ommission</w>
a ch
t ed</w>
a ch</w>
t o
A u
in ter
E r
K ommission</w>
w ould</w>
t en
2 0
st a
g el
is e</w>
is che</w>
un d
c y</w>
at en</w>
co un
s ti
be i</w>
g o
V or
si e</w>
e t
P rä
&apos ;</w>
an t</w>
i er
sh ould</w>
da ß</w>
ti ve</w>
an n</w>
d is
u s</w>
ö n
Her r</w>
a hr
ro m</w>
u r</w>
zu r</w>
h e
al ly</w>
on e</w>
&apos ;
ü s
em ber</w>
f rom</w>
es s</w>
es e</w>
e y</w>
I n</w>
der n</w>
ge h
r it
W e</w>
&apos; s</w>
ab le</w>
D i
m in
ou r
A b
ch ti
mus t</w>
p er
n ation
re c
En t
m or
k en</w>
d ur
Pre sident</w>
es t
E U</w>
v er</w>
Par la
li chen</w>
it s</w>
E in
w el
o h
li a
k eit</w>
k t</w>
we it
g ra
d o
d s</w>
ti ons</w>
be t
W ir</w>
l en</w>
b ut</w>
e l</w>
l ei
por t
au s</w>
s en
ati ons</w>
be en</w>
y o
l u
b en
au f
sch en</w>
k ön
dies e</w>
in g
or d
h eit</w>
be it
er s</w>
S ie</w>
e t</w>
st ell
s el
un s</w>
b le
m üs
omm en</w>
c an</w>
lia ment</w>
le g
w a
Europä ischen</w>
st r
Par liament</w>
o b
c al</w>
ver y</w>
g ro
20 0
b r
müs sen</w>
a m</w>
M a
un ter
p res
en d</w>
for m
m ar
w ur
t s
yo u</w>
mor e</w>
I t</w>
i hr
o un
g u
t ei
ü n
h o
er en</w>
c es</w>
z w
an der
e tz
dies er</w>
e p
ö r
fü hr
p re
t schaf
an y</w>
en s</w>
h in
mö chte</w>
i lit
G e
s am
n ah
v en</w>
li che</w>
ar y</w>
l in
qu ot
el y</w>
w ar
u p</w>
l an
c omm
t re
M ember</w>
Mit gli
no ch</w>
ci al</w>
i ti
v or</w>
er n</w>
f ol
g re
re port</w>
G r
er ung</w>
t r
in c
tim m
E s</w>
St ates</w>
ge m
quot ;</w>
& quot;</w>
k ing</w>
d o</w>
eh en</w>
g er</w>
men t
p f
ec on
an ce</w>
ei r</w>
v o
li ke</w>
C oun
Mitgli ed
Prä sident</w>
m it
con c
Coun ci
th eir</w>
th ere</w>
ri gh
Counci l</w>
n eh
si b
ff i
D as</w>
st en</w>
re s</w>
kön nen</w>
f re
e urop
pro pos
ü ber
a k
es s
ec t</w>
c ul
f t</w>
dies em</w>
su p
ch er</w>
t ro
Mitglied sta
di es</w>
st ru
st at
re g
o ther</w>
b u
ein em</w>
Europ e</w>
no w</w>
re sp
n ur</w>
h er
im port
k ann</w>
ü tz
si on
europ ä
as s
dur ch</w>
du c
Th is</w>
v es</w>
G es
er t</w>
th ese</w>
b t</w>
n ach</w>
er n
se in</w>
ab er</w>
te t</w>
h i
y st
sti tu
Ber icht</w>
for e</w>
K on
ou s</w>
er e
au se</w>
Parla ment</w>
al en</w>
is t
th ey</w>
zu m</w>
wen n</w>
w ä
s om
m u
sol l
v el
ge b
m s</w>
l ung</w>
c k</w>
u b
d es
o der</w>
ac c
us am
ü ck
s ehr</w>
v ol
Un ter
Mitgliedsta aten</w>
k on
r is
tri es</w>
gra m
f en</w>
l t</w>
e k
i el
p le
coun tries</w>
wor k</w>
d ing</w>
f ac
par ti
m on
lie ß
f a
ges ch
ag re
M en
wi ck
l ä
w ei
g n
i d</w>
ne u
s on
t h</w>
at ed</w>
Re gi
i h
z ei
al is
wh at</w>
an t
a re
s it
t ung</w>
eh r
k ommen</w>
i c</w>
ff en</w>
e u
eit en</w>
usam men
C omm
as t</w>
y e
ab out</w>
o d</w>
wi chti
e ment</w>
v en
op le</w>
se tz
t ing</w>
k l
at e
ä t</w>
n e</w>
st ütz
n ung</w>
ra ti
r in
t el
tim e</w>
g ung</w>
ne ed</w>
mar k
f er
F or
p la
f ra
c ause</w>
m y</w>
h and
un ser
m er</w>
B es
Vor sch
wh o</w>
on der
re as
import ant</w>
po si
w is
m an</w>
s ec
nation al</w>
ein es</w>
A l
U m
p ri
de vel
e ff
on ly</w>
ati ve</w>
pe ople</w>
en ce</w>
t ran
th o
sch ließ
ne w</w>
ch er
D er</w>
econ om
d ung</w>
mus s</w>
b eit</w>
f o
p l
dies es</w>
un s
el t</w>
Fra u</w>
ig h
po in
poli cy</w>
i f</w>
g h</w>
is su
er i
Z u
re l
m ehr</w>
ahr en</w>
com e</w>
u ation</w>
be cause</w>
or t</w>
ag a
op er
st ri
c le
pro c
ilit y</w>
em p
w n</w>
neh men</w>
en s
da y</w>
n o</w>
wi th
wur de</w>
fin an
P o
Europä ische</w>
f ir
in n
an n
qu es
ti gen</w>
Europ a</w>
ar i
te e</w>
s yst
al le</w>
re gi
en den</w>
la r</w>
ed o
a ge</w>
ch n
eh t</w>
ol le
al e</w>
devel op
etz t</w>
Ar beit
men d
Her r
v ed</w>
pro ble
v ing</w>
B ür
de c
su ch</w>
ommis sion
ver n
e w</w>
bes onder
g y</w>
hal b</w>
schaf t</w>
Z usammen
Ent wick
d am
ti g</w>
for der
ta ke</w>
de mo
ere fore</w>
d a</w>
nah men</w>
su b
1 9
sib le</w>
u te</w>
t n
stell en</w>
In ter
wa y</w>
st än
an k</w>
sup port</w>
ra l</w>
il li
Au f
a lit
wir k
r on
ch an
un ity</w>
ein g</w>
d ed</w>
ub li
ing s</w>
j us
L än
us s
c u
an s</w>
re ich
we ver</w>
Pro ble
f u
ap p
g lei
ec i
sch e</w>
v is
sam e</w>
ge gen</w>
ber eit
ihr e</w>
ma ke</w>
li ch
bes t
t in
R at</w>
ges t
g keit</w>
lo s
in to</w>
b a
ich t
de b
de ut
tion en</w>
w ür
g lich</w>
gem ein
m is
we en</w>
hal ten</w>
f ä
j e
bet ween</w>
ar d</w>
at ing</w>
ri e
tho se</w>
wir tschaf
l au
gel e
Ä n
h er</w>
Ma ß
E U
zw ischen</w>
hi er</w>
p en
i en</w>
Ü ber
F in
st e</w>
h um
Än der
er k
D e
w o</w>
w ar</w>
it tee</w>
den en</w>
sp e
th ing</w>
europä ischen</w>
di rec
hab e</w>
b ar
t y</w>
dies en</w>
be lie
am p
ä m
ar ly</w>
as sen</w>
t or
as e</w>
p ubli
gi bt</w>
Ber ich
resp on
pro gram
u res</w>
un der
t ur
righ ts</w>
l än
politi k</w>
th erefore</w>
wh en</w>
som e</w>
sch ei
b eing</w>
l and</w>
ge ben</w>
L e
com p
ar s</w>
pro duc
ä ch
tra g</w>
H au
S o
li ti
h e</w>
es t</w>
sp re
C ommission
wer e</w>
c ation</w>
a d</w>
th em</w>
politi cal</w>
w är
ge t</w>
m any</w>
G em
br au
x t</w>
l ar
b ei
W ir
en z
M in
a ff
j ec
ma de</w>
en er
c re
gro ß
m at
dam it</w>
c an
ol o
k eine</w>
Fra ge</w>
uns ere</w>
econom ic</w>
m an
on g</w>
m ich</w>
H o
f e</w>
ch ten</w>
vi el
le tz
u tz
th an</w>
k s</w>
edo ch</w>
re ad
w oh
en g
or der</w>
gan is
t or</w>
Commission er</w>
ommis s
ra p
th in
Gem ein
tr y</w>
in s
belie ve</w>
ein i
un kt</w>
mo st</w>
en de</w>
c ri
W e
ar beit
h el
K ommiss
l is
K o
un ter</w>
r ü
j edoch</w>
us s</w>
cht s
b o
Gr und
r au
for m</w>
son dern</w>
Ber ei
k tion</w>
la g</w>
de t</w>
pro t
St a
ci ti
h ere</w>
d an
h ar
re d</w>
sa y</w>
f ten</w>
we ise</w>
u tion</w>
ro u
f un
in st</w>
Herr n</w>
geh t</w>
p a
h an
cle ar</w>
ti ge</w>
er h
19 9
ation en</w>
propos al</w>
y s</w>
wi e
u e</w>
Maß nahmen</w>
k rati
ß er
conc ern
aga inst</w>
ander en</w>
fac t</w>
ie l</w>
sh al
gen t
deb ate</w>
iti es</w>
Prä siden
me as
he ute</w>
wä hr
ell en</w>
Aus sch
ff er
soll ten</w>
soll te</w>
c er
it e</w>
unter stütz
S ich
J ah
p ra
fir st</w>
p p
am en</w>
ä u
f t
C on
d ra
in form
lo w
ier ung</w>
ment al</w>
is l
n at
d ann</w>
y ing</w>
jus t</w>
ge gen
so cial</w>
in stitu
sch ie
citi z
M ar
el le</w>
a st
s at
0 0</w>
el e
publi c</w>
m p
gli ch
mark et</w>
dec is
Th at</w>
on en</w>
poin t</w>
geh en</w>
f ul
qu i
so wie</w>
inc lu
z eu
thin k</w>
al le
le v
i es</w>
c c
bereit s</w>
pos sible</w>
con si
Comm ittee</w>
ec tion</w>
sch en
oper ation</w>
bu d
te chn
un i
f all
develop ment</w>
Änder ungs
issu e</w>
Men schen</w>
woh l</w>
sit uation</w>
ad op
inc reas
ö l
K olle
wh ere</w>
im mer</w>
cer ta
ye ars</w>
pro vi
sp eci
vi ew</w>
Fin an
g ab
gh t</w>
righ t</w>
Bes ch
s timm
st and
sp ar
te l</w>
em ber
g s</w>
k te</w>
us e</w>
h nen</w>
en n</w>
Parla ments</w>
f ut
ur r
Wir tschaf
b i
besonder e</w>
op e</w>
ff ent
Entwick lung</w>
ou gh</w>
F re
Hau shal
sa gen</w>
w es
coun try</w>
so zi
con tin
den n</w>
a mend
wei l</w>
in nen</w>
hum an</w>
res ol
fut ure</w>
w ol
read y</w>
b ie
t ure</w>
b in</w>
syst em</w>
o ff
ques tion</w>
vi ron
wur den</w>
re su
f e
ha d</w>
can not</w>
ä tz
o ver</w>
S it
go vern
n is
m al</w>
g es</w>
citiz ens</w>
do es</w>
c our
a li
ci p
ant wor
w ant</w>
A s</w>
e ven</w>
m eine</w>
ba si
reg ul
par t</w>
meas ures</w>
R ah
Vorsch lag</w>
dar auf</w>
nation alen</w>
f ahren</w>
res s</w>
ar beit</w>
wel l</w>
unser er</w>
ap pro
si cher
t wo</w>
ge ment</w>
vo m</w>
stru c
ä f
leg isl
b re
lin ie</w>
c ould</w>
s or
p s</w>
ord nung</w>
com pe
bes ch
R icht
da für</w>
p rin
EU -
n u
st an
gan z</w>
l ungen</w>
gi e</w>
sh i
lo b
Po liti
bes ser
M r
o b</w>
wen di
sa id</w>
demo c
da m</w>
eit s
en n
ent ly</w>
gen en</w>
to day</w>
vo te</w>
d r
D em
agre ement</w>
posi tion</w>
kl är
th en</w>
Men schen
G ro
st ar
Ver ein
str ate
ter stat
th rou
se e</w>
ot h</w>
o wn</w>
im ple
nah me</w>
tro l
j etzt</w>
en z</w>
dis c
in e</w>
is p
lo y
ti v
st e
be g
Bür ger</w>
al ready</w>
ex c
por te
gen ommen</w>
Th em
T re
et y</w>
lo w</w>
k eiten</w>
c urr
mu ch</w>
n ec
en ti
ye ar</w>
f est
ember s</w>
go od</w>
stän di
at s
to o</w>
W enn</w>
ex p
ö s
alit y</w>
da zu</w>
h ä
j ect</w>
m ir</w>
ho w</w>
ta ken</w>
Kolle gen</w>
with in</w>
or ity</w>
ar ds</w>
M e
st and</w>
ach ie
si cht</w>
ter s</w>
ti c
n um
sti ll</w>
in gen</w>
führ en</w>
gest ell
gen er
H in
ihr er</w>
con su
En er
O r
n ach
sp ra
z us
tion al</w>
w al
k un
wirtschaf t
Mr s</w>
Fra ktion</w>
rap porte
w er</w>
per i
en viron
mit tel
finan cial</w>
leg al</w>
Th ere</w>
sel b
v ot
in v
fu l</w>
di ffer
be wer
k now</w>
cu lar</w>
tu ral</w>
setz ung</w>
Berich terstat
Ho wever</w>
ne ed
acc ep
neu en</w>
h ig
pla ce</w>
ma chen</w>
eff ec
comm on</w>
me di
b oth</w>
it ed</w>
si ons</w>
parti cular</w>
wür de</w>
s ch</w>
führ t</w>
du stri
ins besondere</w>
wel t
Dem o
t ly</w>
la ge</w>
ti es</w>
Comm unity</w>
Län der</w>
Kommiss ar</w>
e ver
un der</w>
cour se</w>
Ar beit</w>
ac t</w>
co operation</w>
at er</w>
lev el</w>
Re chts
ou s
is ten</w>
l ungs
nec ess
inter national</w>
h ope</w>
f is
th re
at or
Pro gram
ser vi
at te</w>
rä ge</w>
ti n</w>
f li
ur ity</w>
ens ure</w>
k e
ou se</w>
h än
z ah
y our</w>
v al
Zusammen arbeit</w>
ac tion</w>
L is
it ät</w>
be gr
el l</w>
ter n</w>
is m</w>
I hnen</w>
so ci
el n</w>
do ch</w>
or ganis
wor ld</w>
dur ch
wichti g</w>
si gn
ti eren</w>
i b
igh t</w>
be d
kön n
l ed</w>
emp loy
k re
im pro
em s</w>
c ase</w>
in di
a ir
A m
der ung</w>
n al</w>
st är
proble m</w>
Menschen re
de m
Di ese</w>
sat z</w>
l assen</w>
r or
mu ß</w>
M ein
politi schen</w>
Unter stütz
alle m</w>
wol len</w>
are a</w>
h is</w>
b il
k om
Berei ch</w>
p ut</w>
rit t</w>
en d
T ei
M on
Arbeit s
fi c
ag t</w>
h en</w>
Z eit</w>
pres ent
ab ility</w>
au th
ar an
min is
f ri
ö ß
t es</w>
Pre siden
as ed</w>
wor den</w>
B eit
som e
D es
en en</w>
ass ung</w>
all en</w>
Richt linie</w>
proc ess</w>
om en</w>
wh y</w>
in iti
Jah r</w>
g lau
g a
eini ge</w>
ti al</w>
g ri
es sen
st ehen</w>
c ed</w>
ord in
Unterstütz ung</w>
de u
b is</w>
or ities</w>
ich ts</w>
f le
in ten
ma j
ord ne
z en</w>
rapporte ur</w>
ut z</w>
ven tion</w>
m us</w>
oh ne</w>
l ast</w>
ür lich</w>
aus ge
F is
te xt</w>
be k
ge ordne
al o
inform ation</w>
ur o</w>
neu e</w>
at y</w>
me ans</w>
s eine</w>
vor sch
ci es</w>
ö ffent
Rah men</w>
b ar</w>
d ru
amp le</w>
k tion
ander e</w>
ob jec
ma y</w>
mö gli
gestell t</w>
gent le
ti g
num ber</w>
ener gy</w>
M ö
is en</w>
z un
ex ample</w>
T a
as k</w>
a u</w>
li cher</w>
in vol
gentle men</w>
J ahren</w>
S p
necess ary</w>
h ol
In form
w o
reich en</w>
s af
Bür ger
l er</w>
throu gh</w>
v öl
G er
ü ß
ier en</w>
cht ung</w>
with out</w>
al th</w>
ent r
proble ms</w>
i c
Q u
N o
I f</w>
H ouse</w>
wär e</w>
Di es</w>
P er
est ab
go ti
ti k
z ep
Län dern</w>
de l</w>
ffi ci
si ve</w>
ho wever</w>
hal f</w>
st o
Ent schei
ge t
tu n</w>
d ly</w>
direc tive</w>
lo o
ul es</w>
Re cht</w>
L and</w>
compe ti
a ffen</w>
Mö glich
fall s</w>
glei ch
consi der
g lob
t bewer
la gen</w>
f und
Sich er
program me</w>
k o
se t</w>
bud get</w>
si chti
zi eh
ne goti
e ben
i ons</w>
fin den</w>
b in
ne t</w>
St r
no t
cul arly</w>
ac k
fa v
zei ch
Proble m</w>
lei ch
Ma dam</w>
z ü
ou ra
B eh
gi ve</w>
m einer</w>
p unkt</w>
t al
shi p</w>
op port
we i</w>
Ent schließ
ff t</w>
parti cularly</w>
pres ent</w>
I m</w>
f ur
at ely</w>
sch on</w>
äm pf
stimm ung</w>
i a</w>
gen heit</w>
gre at</w>
- 0
Ab geordne
sel f</w>
wis sen</w>
i gen</w>
Z iel
e f
estab lis
spre chen</w>
issu es</w>
z ur
be fore</w>
l es</w>
br ingen</w>
ier t</w>
ri ti
comm it
kun ft</w>
th ough</w>
sec urity</w>
illi on</w>
h n
app li
prot ection</w>
ma in
sam en</w>
reg ard</w>
el d</w>
ein mal</w>
str eng
gi ven</w>
Str ate
B ed
e ments</w>
resol ution</w>
Min is
j o
c ar
b al
are as</w>
ma cht</w>
20 1
r ise</w>
chan ge</w>
Präsiden tin</w>
Unter nehmen</w>
f ahr
z wei</w>
tri fft</w>
h eiten</w>
Sta aten</w>
sib ility</w>
F rau
ün f
fi c</w>
F all</w>
resp ect</w>
selb st</w>
Them a</w>
I hr
la w</w>
Tre aty</w>
sol l</w>
ä hr
tor s</w>
ti ert</w>
mat ter</w>
spra che</w>
f as
wh e
k omm
ges etzt</w>
sh o
schaf t
Sicher heit</w>
b le</w>
W ie</w>
mö glich</w>
europä ische</w>
setz en</w>
im m
ff e</w>
vi el</w>
proc ed
w omen</w>
gr öß
J ahr
por ts</w>
Fra gen</w>
N amen</w>
Be deut
stell t</w>
an ge
employ ment</w>
P ri
D o
sp ort</w>
ges am
f ar</w>
i l</w>
dar über</w>
viel e</w>
2 0</w>
re qui
Bedeut ung</w>
in te
li m
w s</w>
et was</w>
an trag</w>
Mein ung</w>
los sen</w>
d re
bes timm
di ffi
diffi cul
Politi k</w>
h igh
E ben
Ener gi
ti ce</w>
us ed</w>
whe ther</w>
u d
k ey</w>
nu n</w>
D is
amend ments</w>
t ru
R ates</w>
not wendi
am i
Ver brau
tri bu
for t
la dies</w>
aga in</w>
uss es</w>
k u
L age</w>
com ple
fä l
wa ys</w>
si cht
me work</w>
tim men</w>
ti c</w>
best eht</w>
s c
han g</w>
ihr en</w>
M embers</w>
ri ften</w>
g o</w>
se qu
L ös
k ehr
op in
con di
sec tor</w>
k ed</w>
il fe</w>
c all
W et
sa m</w>
th ank</w>
stell ung</w>
certa in</w>
ti ves</w>
Ges ch
Inter es
W as</w>
zu g</w>
ex pres
ser i
en cy</w>
Z iel</w>
c ris
unterstütz en</w>
in de
ac coun
basi s</w>
k es</w>
S o</w>
su cc
dar f</w>
m i
f f</w>
l ess</w>
inter es
Un ited</w>
z e</w>
conc lu
L i
Gro up</w>
regi on
e qu
wie der</w>
fur ther</w>
N ach
hand elt</w>
ro le</w>
our ces</w>
sin ce</w>
pro g
propos als</w>
St ra
V ol
go ing</w>
Aus sprache</w>
begr üß
is cher</w>
lich keit</w>
führ ung</w>
T ran
Proble me</w>
For t
da her</w>
K ol
ges agt</w>
Regi erung</w>
Di es
Ge bie
z el
si mp
el ec
ou t
ent schei
ter ms</w>
aus sch
finan zi
ig er</w>
Sit uation</w>
pra c
ne xt</w>
g ten</w>
Wet tbewer
agre e</w>
Frau en</w>
decis ion</w>
gen den</w>
f an
li dar
li ck</w>
ful ly</w>
on -
tra de</w>
ß t</w>
Zu kunft</w>
m es</w>
Di en
nis se</w>
servi ces</w>
fav our</w>
a v
wirk lich</w>
W or
u es</w>
K om
cul tural</w>
c t</w>
ol le</w>
gre i
lä ge</w>
tre ten</w>
war ds</w>
nat ürlich</w>
d one</w>
and el
fi ed</w>
a id</w>
er forder
a de</w>
n is</w>
k ti
be half</w>
Mit tel</w>
r ules</w>
l at
ta in
le gen</w>
an ges
adop ted</w>
p rop
it ä
M illi
s s
ma in</w>
Zusammen hang</w>
L and
war d</w>
de fin
differ ent</w>
c ap
n i
h ei
Haushal ts
he alth</w>
Des halb</w>
geh ör
ver schie
K in
F ol
legisl ation</w>
R olle</w>
i de
Wirtschaf ts
g ar</w>
r en
gele gt</w>
re co
zw ar</w>
tra gen</w>
bet ter</w>
Änderungs ant
ge führt</w>
at ten
en th
ous ly</w>
f ör
W hat</w>
Finan z
S yst
m er
c olle
Ab stimmung</w>
In stitu
hel p</w>
ri chti
Ver hand
p lan
s econ
politi sche</w>
Er geb
st eht</w>
we isen</w>
glau be</w>
St and
ben s
o ver
äm lich</w>
l ing</w>
te u
t -
Z eit
gan g</w>
letz ten</w>
n ämlich</w>
need s</w>
M o
and s</w>
s ehen</w>
is ed</w>
z eit</w>
c or
B ut</w>
m ers</w>
imple ment
fra mework</w>
gr und
Re gel
ar ch</w>
en ces</w>
tu r</w>
I s
D a
C hin
im p
timm t</w>
s ed</w>
ma king</w>
par tn
Regi er
Kol leg
cris is</w>
Mit tel
Demo krati
contin ue</w>
tran s
p rä
al er</w>
u p
n am
D ur
b lei
opin ion</w>
institu tions</w>
Dis k
Pro du
ac k</w>
re ig
W elt</w>
ever y
So zi
ch es</w>
af ter</w>
s m
er st
d ings</w>
th er
dru ck</w>
p rü
T ur
at t
E u
alit ät</w>
fol low
Be isp
wh ol
ag ri
sel ves</w>
De b
weit er
b s
gen d</w>
unser en</w>
wis h</w>
sch i
ul ation</w>
s einer</w>
a gen
t wor
prin cip
es en</w>
200 0</w>
G re
is mus</w>
G o
pro m
w ün
Ar tik
ra tion</w>
d ür
gro up</w>
prog ress</w>
men te</w>
spre ch
d lich</w>
sicht lich</w>
olo gi
concern ed</w>
posi tive</w>
y p
F or</w>
der s</w>
ges timmt</w>
k ur
str y</w>
j en
b el
vis ion</w>
B ar
sch n
lie gt</w>
ra cy</w>
k ra
ä l
B el
au en</w>
fer ence</w>
n ing</w>
gr at
l on
w eit</w>
be trifft</w>
vot ed</w>
I ra
ge währ
demo krati
ie der
gr und</w>
tei l</w>
ück sichti
dan ken</w>
Ges und
rit te</w>
r än
h ör
k an
ei cht</w>
hä t
In iti
m erk
Besch äf
Eu ro
w an
s ab
ma ß
t able</w>
Um welt
i g</w>
si de</w>
j a</w>
re se
da von</w>
St ate</w>
rati c</w>
arbeit en</w>
ex tre
ti gung</w>
resu lt</w>
l ong</w>
A gen
rit eri
Ver antwor
b ur
z weit
e -
lin e</w>
k ten</w>
w ach
al ten</w>
whol e</w>
ent wick
is h</w>
f ew</w>
for ward</w>
E x
h ö
wel come</w>
ru pp
at ten</w>
der t</w>
n äch
könn te</w>
wen dung</w>
to wards</w>
no v
We ise</w>
gab en</w>
m ä
D ar
n or
ih r</w>
zur ück
geb ra
wor king</w>
le ist
l uss</w>
ing ungen</w>
it al</w>
W ah
some thing</w>
th ir
Menschenre chte</w>
ati ves</w>
G leich
gab e</w>
on ds</w>
at s</w>
ge ther</w>
b lick</w>
bes s
appro ach</w>
fun da
ac e</w>
vol l
k er</w>
der en</w>
er re
P unkt</w>
ein zu
du stry</w>
0 00</w>
gen de</w>
es sion</w>
is ti
er te</w>
or i
condi tions</w>
Gemein schaft</w>
dar an</w>
U S
N or
Eben e</w>
B ei
Artik el</w>
hän gi
Europ as</w>
princip le</w>
us sion</w>
p h
gegen über</w>
es p
in tro
A ber</w>
thre e</w>
ho ffe</w>
gu aran
sch ein
b us
b an
p ur
h ing</w>
ffi zi
Tei l</w>
g ing</w>
du ce</w>
g lie
ess es</w>
tran spar
gra tion</w>
res ources</w>
enz en</w>
di d</w>
per s
gro w
s y
con tribu
ec ted</w>
Sch utz</w>
kom men
ß en
Herr en</w>
to gether</w>
sh all</w>
b ased</w>
ed u
b it
ein f
i le</w>
t om
war en</w>
Fort sch
F ü
sp rä
For sch
curr ent</w>
erh in</w>
sub ject</w>
st ate</w>
inclu ding</w>
v ent</w>
Kon trol
währ end</w>
T er
groß e</w>
g s
den ce</w>
pro chen</w>
k tionen</w>
Un d</w>
propos ed</w>
M ehr
g ut</w>
or y</w>
c tion</w>
import ance</w>
Berichterstat ter</w>
opport unity</w>
speci fic</w>
da bei</w>
vor gesch
dre i</w>
v ement</w>
Vorsch läge</w>
do wn</w>
We g</w>
ation s
re ally</w>
e k</w>
brau chen</w>
air s</w>
le isten</w>
k no
g ed</w>
e ben</w>
regul ation</w>
E uro</w>
Gr ün
re i
h au
au ßer
as es</w>
Jahr e</w>
k ein</w>
is ch</w>
ad di
F ran
en ts</w>
G i
m illion</w>
cri min
ver s
S in
ati ven</w>
k ünf
re duc
s ure</w>
i d
l ab
esp eci
or ts</w>
Presiden cy</w>
An sicht</w>
ec ts</w>
provi de</w>
O n</w>
l en
er ten</w>
B em
Sozi al
her vor
especi ally</w>
dur ing</w>
auth orities</w>
f el
schaf ts
li ber
h ed</w>
poli cies</w>
increas e</w>
ta king</w>
tran sport</w>
all er</w>
e very</w>
Deb atte</w>
zi ehen</w>
rop ri
so wohl</w>
V iel
ann t</w>
gn is
L u
inn en
Re chte</w>
ch ar
wi l
D amen</w>
Lös ung</w>
Möglich keit</w>
k ehr</w>
we gen</w>
gener al</w>
z o
EU R</w>
dar in</w>
St ru
in stru
An gele
a il
ilit ät</w>
certa in
le a
v ari
app ropri
Pro z
en nen</w>
Kolleg innen</w>
saf ety</w>
in dustry</w>
produc ts</w>
respon sibility</w>
weit er</w>
ä h
negoti ations</w>
wor k
ger e
cle arly</w>
strate gy</w>
resu l
fin d</w>
as p
v es
Strate gie</w>
zun eh
besonder s</w>
s eit</w>
W el
Z ah
völ k
ti gt</w>
ih nen</w>
er dings</w>
accoun t</w>
den t</w>
schließ lich</w>
sch affen</w>
s ur
c oura
z usammen
Änderungsant räge</w>
vi ol
qu ite</w>
st s</w>
an other</w>
zi erung</w>
er halten</w>
be come</w>
R us
k tur
it self</w>
sp ek
k lar</w>
gre ater</w>
tro l</w>
inn er
environ mental</w>
n er</w>
secon d</w>
b ri
ri min
Le bens
ü h
ter m</w>
Entwick lungs
Änderungs antrag</w>
com ing</w>
inter nationalen</w>
f ar
Um setzung</w>
komm t</w>
st ra
d ungen</w>
Par tn
ra ther</w>
h and</w>
er zi
Beisp iel</w>
seri ous</w>
le ast</w>
effec tive</w>
a k</w>
Au ch</w>
an zu
gemein samen</w>
Ar t</w>
A fri
t lich</w>
vi du
Be zug</w>
er fol
k ämpf
un de</w>
gu e</w>
ben ef
rese arch</w>
wes ent
bus in
groß en</w>
g le</w>
Th ey</w>
dür fen</w>
ab hängi
gebra cht</w>
fra gen</w>
ger n</w>
Chin a</w>
glei ch</w>
c all</w>
Rus si
be deu
ab sol
pf li
N o</w>
ell schaft</w>
for ce</w>
re present
st er
stand ards</w>
D rit
democ ratic</w>
sta in
wel che</w>
ac tu
Ab kommen</w>
edo m</w>
aff ung</w>
c l
cul ture</w>
pro mis
ter ror
s ätz
sa che</w>
wirtschaft lichen</w>
c ing</w>
ge wi
s k
comp an
Go vern
i cal</w>
ver besser
Abgeordne ten</w>
democ racy</w>
B innen
tei lung</w>
h r</w>
de al</w>
des sen</w>
Me di
Ges etz
wh ile</w>
äch st</w>
regi ons</w>
ell eicht</w>
S e
sozi alen</w>
al ways</w>
b ro
al y
Verhand lungen</w>
re al</w>
Ein e</w>
ent sprech
g ation</w>
difficul t</w>
Th ese</w>
Demokrati e</w>
reas on</w>
sign i
lie gen</w>
S teu
indi vidu
ch en
alis ierung</w>
T at
ein zel
hum an
In stru
zieh ungen</w>
ber ei
fre e</w>
ami li
on ce</w>
ak zep
ap pe
re it
ber ücksichti
T o
E in</w>
essen tial</w>
acc ess</w>
Hin blick</w>
t ent</w>
atten tion</w>
funda mental</w>
k ung</w>
W ähr
Milli onen</w>
ten s</w>
ut es</w>
weit erhin</w>
Er klär
f all</w>
Ver trag</w>
b on</w>
fü r
th ings</w>
e ts</w>
interes ts</w>
pri v
mar kt</w>
den ken</w>
k a</w>
a gement</w>
liti es</w>
a w
Ver ordnung</w>
th em
s weise</w>
achie ve</w>
m ul
Sich erh
eini gen</w>
an im
maj or</w>
wirtschaf t</w>
An twor
R at
des halb</w>
m ilit
regi on</w>
syst ems</w>
fra ge</w>
h il
de f
k t
Ziel e</w>
c lo
wie der
me et
soci ety</w>
sm all</w>
poin ts</w>
tschaf t</w>
x ib
fre edom</w>
D ah
qu ality</w>
inner halb</w>
fi cation</w>
kon kre
Aussch usses</w>
ver su
den ke</w>
Gr und</w>
b is
W o
implement ation</w>
Verein ig
re cht</w>
R om
c los
ag es</w>
B r
in gt</w>
5 0</w>
F ör
ffi ce</w>
nation ale</w>
H ilfe</w>
signi fic
d y</w>
Entschließ ung</w>
R ei
Dah er</w>
forder t</w>
re cht
Ver fahren</w>
inter nal</w>
gemein same</w>
d at
spe zi
Arbeit sp
jo in
ti gkeit</w>
1 0</w>
govern ment</w>
mon ey</w>
E C
an s
li g</w>
er sten</w>
wichti ge</w>
Wirtschaf t</w>
thir d</w>
e ach</w>
itä ten</w>
de ci
Ihr e</w>
econom y</w>
ad d
sol len</w>
ti cal</w>
T O</w>
ver stän
eff orts</w>
b ack</w>
o th
Verantwor tung</w>
loo k</w>
ter n
re form</w>
gesch lossen</w>
h ist
Institu tionen</w>
Beh ör
schaf ten</w>
reco gn
h eit
vari ous</w>
in dustri
rec ei
er reichen</w>
p rec
wer de</w>
cht ungen</w>
A t</w>
ch il
f te</w>
In dustri
N ot
all es</w>
ger ade</w>
Ge gen
Aussch uss</w>
d lichen</w>
Is ra
comm ittee</w>
d ungs
deut lich</w>
wirk ungen</w>
G ener
k in
en lar
sta at
tei l
ol d</w>
E -
ke i</w>
com es</w>
n ed</w>
f al
utz en</w>
un den</w>
si s</w>
ir e</w>
environ ment</w>
t ungs
fü l
consi der</w>
dr ück
wor ds</w>
y et</w>
Grund lage</w>
En de</w>
su m
Sicherh eits
Regi onen</w>
er mögli
Ver besser
ta in</w>
zei gt</w>
j ek
all gem
be isp
o u</w>
pl es</w>
N at
T ex
w in
Am eri
zei tig</w>
Dien st
w rit
proced ure</w>
ge macht</w>
Be völk
grei fen</w>
G en
colle ag
fund s</w>
zü glich</w>
B il
zu stellen</w>
L an
A ff
ad v
T ür
pro mo
ab ly</w>
Or ganis
o se</w>
beisp iel
den ti
sol che</w>
A mend
u al</w>
th s</w>
reig n</w>
F ir
äu ßer
h eits
i heit</w>
inv est
po p
ex ten
ri ft
s ei
notwendi g</w>
op en
re m</w>
per son
invol ved</w>
R ück
z ung</w>
P al
M it</w>
se its</w>
initi ative</w>
al low</w>
Per son
ges ehen</w>
ß en</w>
mä ß
con trol</w>
P e
bei den</w>
f y</w>
hau p
F rie
tic le</w>
dr en</w>
ver sch
fer enz</w>
competi tion</w>
f er</w>
weit ere</w>
ha ving</w>
m ehr
bei m</w>
v e
R u
e th
an ti
concern s</w>
bre it
p as
er klär
el s</w>
Mit glie
gi lt</w>
po wer</w>
mit tel</w>
Tat sache</w>
off en
grat ul
ci vi
st re
si ch
3 0</w>
i ge</w>
län dern</w>
S ek
B o
p ris
min d</w>
Aus wirkungen</w>
tei len</w>
wür den</w>
are d</w>
n ei
Govern ment</w>
alo gue</w>
ch all
program mes</w>
C har
su stain
lar ge</w>
di en
ste p</w>
ah r</w>
C h
Aff airs</w>
grow th</w>
compan ies</w>
tion ed</w>
ge geben</w>
Ver f
er wä
d ate</w>
er st</w>
minis tra
um fas
US A</w>
con gratul
sin gle</w>
fin det</w>
ei li
e ffici
gr enz
Au ßen
ats äch
Li ber
J us
c ent
pl an</w>
agre ements</w>
bes t</w>
sch er</w>
a b</w>
reg ar
E ra
W i
re fer
chil dren</w>
n ichts</w>
hig h</w>
alis ation</w>
ful l</w>
fä hig
acc ord
ver fahren</w>
m ati
tim es</w>
le ben</w>
maj ority</w>
Aus druck</w>
at er
J u
in dem</w>
R es
fo od</w>
fort un
y -
b our
d rin
t rä
St ell
d ou
con stitu
li eren</w>
objec tives</w>
N ach</w>
hal te</w>
200 1</w>
gen e</w>
u ß</w>
sa ge</w>
wen iger</w>
1 5</w>
Ver tra
inter est</w>
in f
d est
amend ment</w>
be w
st ly</w>
extre m
unterstütz t</w>
Lis sab
Syst em</w>
Lis bon</w>
Inform ationen</w>
in s</w>
c ally</w>
weit erung</w>
sol ution</w>
work ers</w>
Ver pfli
H andel
uns er</w>
en coura
l an</w>
eben falls</w>
un kte</w>
tim me</w>
pro z
aw are</w>
c a</w>
sch wi
intro duc
k einen</w>
glob al</w>
ein zi
dar um</w>
t ation</w>
he b
man agement</w>
s es</w>
re gel
h oh
form s</w>
ex peri
certain ly</w>
Au ff
av ail
l üs
o ften</w>
ha pp
er seits</w>
produc tion</w>
decis ions</w>
sp iel
simp ly</w>
tra di
se l</w>
i er</w>
i tion</w>
beispiel sweise</w>
Entschei dung</w>
viel en</w>
an gem
S a
gegen wär
vorsch riften</w>
re ques
un ities</w>
s timmen</w>
Kommiss ar
lo s</w>
u ps</w>
ver fol
J un
pe ace</w>
mit t
R ich
Tur key</w>
B al
vol l</w>
jec ts</w>
agri cultural</w>
öffent lichen</w>
ob li
li c
ei genen</w>
Pro to
schi ed
rec ent</w>
Interes se</w>
follow ing</w>
Tür kei</w>
5 -0
om ent</w>
ti v</w>
n er
D ank</w>
Rat sprä
h on
extrem ely</w>
För derung</w>
Arbeit neh
Behör den</w>
k ol
sp ec
s einen</w>
A k
li gi
Al s</w>
Be ziehungen</w>
ter in</w>
Regi on</w>
conc ern</w>
ge w
Er weiterung</w>
h atte</w>
ra g</w>
gu te</w>
aus zu
verschie denen</w>
s ing</w>
Dur ch
men tioned</w>
gro ups</w>
br ing</w>
vi elleicht</w>
der ungen</w>
Au s</w>
po ten
accep t</w>
Ter ror
ha ps</w>
Ver tre
T ra
rel ations</w>
al low
Wettbewer bs
zw ei
t ä
comm uni
appropri ate</w>
o cc
hin aus</w>
E m
ag o</w>
Di alo
cht ens</w>
gehör t</w>
st eh
stat t</w>
lä tz
bedeu tet</w>
tur n</w>
gen au</w>
ad ministra
la ck</w>
l s</w>
region al</w>
pos e</w>
E r</w>
call ed</w>
t le</w>
hal tung</w>
Um wel
di alogue</w>
ch o
lä s
Vereinig ten</w>
Kommissar in</w>
fä hr
g sten</w>
bet re
St ab
Era chtens</w>
co ordin
Minis ter</w>
Al l
parti cip
pro du
olo g
sch rift
fi eld</w>
l ück
cre ate</w>
j u
f ung</w>
enlar gement</w>
gen u
Not wendi
pro f
ab o
be tra
is tet</w>
Sch affung</w>
Antwor t</w>
r y</w>
ob s</w>
actu ally</w>
Verbrau cher</w>
C O
t atsäch
bess er</w>
ig ration</w>
F lu
respon sible</w>
ves ti
m ight</w>
b or
con text</w>
P or
ques tions</w>
auf ge
me chan
se ver
ris k</w>
Program m</w>
Ar ticle</w>
li fe</w>
do cu
i an</w>
in ing</w>
ver ein
t ar
l ü
human it
prom ise</w>
peri od</w>
objec tive</w>
le t</w>
Z us
avail able</w>
f ris
en ter
st ates</w>
pos ed</w>
he u
C our
par lia
199 9</w>
einf ach</w>
syst em
mon it
re com
om e</w>
develop ing</w>
con s
st er</w>
g än
Z i
for dern</w>
so gar</w>
se i</w>
in -
ti vi
in es</w>
L et</w>
f onds</w>
hät te</w>
forder ungen</w>
Cour t</w>
de mon
le it
si cher</w>
ba u</w>
erforder lich</w>
j obs</w>
etz en</w>
Ab sch
näch sten</w>
an u
auf grund</w>
A f
r e</w>
d ort</w>
Ver wal
M or
har mon
star t</w>
inde ed</w>
vi c
ou ght</w>
Zu gang</w>
g ges
Ko so
ment ary</w>
Pri or
sion en</w>
K rise</w>
li ght</w>
com b
Be kämpf
f ight</w>
kon n
Fis ch
impro ve</w>
Fin ally</w>
lim ate</w>
Gebie t</w>
W ach
a im
p i
U r
op en</w>
Bed ingungen</w>
ein ge
lin ien</w>
ro w</w>
meet ing</w>
s ha
er ungs
ger ung</w>
v o</w>
el ess</w>
S ub
w le
al tung</w>
stat t
län der</w>
Bekämpf ung</w>
en der</w>
Notwendi gkeit</w>
con sequ
Ta ges
curr ently</w>
t sp
rau m</w>
ist an</w>
tiv ely</w>
resul ts</w>
gem ä
ac tions</w>
i z
umfas sen
g al</w>
disc uss
pf eh
zah l
F un
D a</w>
stru k
Bevölk erung</w>
an genommen</w>
Russi a</w>
könn ten</w>
de ta
n on-
oth ers</w>
gen ann
au m</w>
In vesti
Arbeitsp lätz
concern ing</w>
ab led</w>
m einen</w>
er inn
Dies er</w>
jen igen</w>
entschei den
So lidar
in nov
G ele
v ent
Y ou</w>
h in</w>
Sch ritt</w>
under stand</w>
re ly</w>
vi ous</w>
Auf gabe</w>
fo c
i ce</w>
schließ en</w>
imp act</w>
An d</w>
hal t</w>
consu mers</w>
kin d</w>
Über ein
Di rec
tei lt</w>
ver b
or s</w>
ne g
fa il
S u
2 5</w>
wichti gen</w>
need ed</w>
M i
Beit rag</w>
p li
Ge f
200 6</w>
Sch i
re chte</w>
An wendung</w>
Vol k
200 2</w>
c ases</w>
ig ung</w>
wer s</w>
sam keit</w>
Dienst leist
do ing</w>
Wach st
tei di
m embers</w>
K ul
them selves</w>
er war
zuneh men</w>
wei ß</w>
dis ku
ge ts</w>
u tions</w>
sozi ale</w>
b ru
lan g</w>
hin sichtlich</w>
T o</w>
legisl ative</w>
ver fü
m eines</w>
Be i</w>
tion s
ver ur
wle d
verstän dlich</w>
mat ters</w>
se k
Verbesser ung</w>
hei ßt</w>
Hau p
mon ths</w>
ih rem</w>
Rei he</w>
rin zi
con fli
Stru ktur
Her aus
Initi ative</w>
P ol
fähig keit</w>
con struc
O ffice</w>
Er fol
am e</w>
fortun ately</w>
Au f</w>
erre icht</w>
ist ing</w>
requi re
Fortsch ritte</w>
be züglich</w>
de ter
ation al</w>
si di
t z</w>
sub stan
an y
am oun
accep table</w>
prin ci
gan gen</w>
edu cation</w>
S er
mo ve</w>
c limate</w>
In te
Por tu
Bes timm
T e
re ach
gan genen</w>
K ra
200 4</w>
w ander
o m</w>
ari an</w>
Po li
reas ons</w>
D ec
so lidar
exc ell
zo gen</w>
tn is</w>
Stand punkt</w>
all erdings</w>
e uro</w>
A gr
princi ples</w>
fis her
an del</w>
lich es</w>
ator y</w>
ru p
ex is
F äl
Agr ar
schrift lich</w>
c en</w>
Berich ts</w>
ei gent
du e</w>
L a
Program me</w>
or ig
e ffizi
dat a</w>
Gi pf
wirtschaft liche</w>
en ough</w>
maß nahmen</w>
Verein bar
ein deu
K amp
er fül
re st</w>
an der</w>
fa ir</w>
g te</w>
da r</w>
z eh
B est
t a</w>
s ag
hand eln</w>
re ports</w>
ständi g</w>
de al
blei ben</w>
Ko sten</w>
ge fähr
ti schen</w>
us t</w>
on g
sicher heit</w>
w ahr
richti g</w>
lä u
ven ess</w>
K oh
ih m</w>
ver antwor
Fü r</w>
K enn
li gh
st ens</w>
sch utz</w>
Re g
tei le</w>
parti es</w>
reg ards</w>
tivi ties</w>
di re
e w
W ieder
W ar
sit z
com promise</w>
begrüß e</w>
Ge wal
fle xib
fe el</w>
d liche</w>
inv es
Kontrol le</w>
ati s
imm t</w>
kon trol
Koso vo</w>
fund ing</w>
c ru
bar en</w>
Forsch ung</w>
pre p
bu il
S econ
ex am
e ar
co sts</w>
unter schied
pro jects</w>
vor zu
t ot
S el
schwi eri
Z weit
op p
mul ti
at ast
schließ end</w>
ri cht</w>
ber u
I m
por ted</w>
R uss
O b
200 3</w>
se t
för dern</w>
Interes sen</w>
atast rop
Ver fü
signific ant</w>
achie ved</w>
Sp an
1 2</w>
e p</w>
kehr s
re stri
Berei chen</w>
n ess</w>
W ort</w>
s s</w>
ist ance</w>
h es
i ld</w>
individu al</w>
nach hal
Rich tung</w>
ac tivities</w>
Le ben</w>
Con vention</w>
mittel n</w>
pri ority</w>
ih n</w>
c tions</w>
gen heiten</w>
join t</w>
Beschäf tigung</w>
lon ger</w>
Tages ordnung</w>
J anu
Ergeb nis</w>
inde pen
i denti
Präsiden tschaft</w>
er ste</w>
Gele genheit</w>
ide a</w>
S ol
For m</w>
H aus</w>
Po si
commit ment</w>
st u
ta li
al though</w>
Tran spar
t an
sustain able</w>
re ch
gr ün
Gemein schafts
Energi e
igh ts</w>
dra ft</w>
Mitglie der</w>
G el
ti ven</w>
ta x</w>
lit tle</w>
car ri
z ent
Auff assung</w>
us ing</w>
Proto kol
am ong</w>
D E</w>
C hr
ver än
Re form</w>
ex ter
K ommission
p ly</w>
ü l
ti veness</w>
olo gy</w>
sp ru
tru e</w>
äußer st</w>
l and
je der</w>
writ ing</w>
grund le
gemein sam</w>
a gi
in ge</w>
hn t</w>
unter nehmen</w>
th an
Ges ellschaft</w>
pa y
Amend ment</w>
a z
su gges
govern ments</w>
Partn er
wür di
ri chtung</w>
lo cal</w>
A ll</w>
200 5</w>
der zeit</w>
einzel nen</w>
ch s</w>
pla y</w>
Mehr heit</w>
U N
m einem</w>
excell ent</w>
Erklär ung</w>
chan ges</w>
congratul ate</w>
M är
R ights</w>
inte gration</w>
no thing</w>
ass ess
p ast</w>
fan g</w>
arbeit et</w>
wen den</w>
a im</w>
M y</w>
europä ischer</w>
promo te</w>
agen da</w>
ger ich
c aus
ran k
m ean</w>
fi zi
a cht
ges prochen</w>
cher weise</w>
Fis cher
provi ded</w>
Bürger innen</w>
lan g
P ra
ver stär
ti l</w>
so li
per haps</w>
stan den</w>
im um</w>
Regier ungen</w>
cre di
an aly
Isra el</w>
S eit
V i
pro vis
e ven
li ma
ser v
eff ect</w>
ele gation</w>
get ary</w>
ator s</w>
Vorsch riften</w>
min des
1 .</w>
regar ding</w>
fin al</w>
I tali
S or
wur f</w>
schein t</w>
dis crimin
be l</w>
contin u
speci al</w>
be hin
ter rit
str ong</w>
W h
le ad</w>
A spek
W ith</w>
Kom promis
ber eit</w>
L in
sch t</w>
berei ch</w>
k ul
bet eili
is i
fü n
über zeu
C o
nu clear</w>
en nung</w>
ein ander</w>
er le
agre ed</w>
Steu er
ag ed</w>
201 0</w>
Umwel t</w>
po l
solidar ity</w>
pre vent</w>
f ron
wer t</w>
sp r
en ten</w>
mö glich
es sen</w>
200 9</w>
h t</w>
re alis
inclu de</w>
Bürger n</w>
yo ung</w>
su ffici
a de
ou th</w>
gesam ten</w>
Gesund heit</w>
l auf
mark ets</w>
em is
K lima
b lo
se en</w>
völ lig</w>
Jah res</w>
guaran tee</w>
to o
we der</w>
F o
e ver</w>
Rechts vorschriften</w>
en or
b order</w>
or row</w>
f assen</w>
tri e
bet ro
eben so</w>
Berichterstat terin</w>
m oment</w>
ab zu
z e
Ein führung</w>
gewähr leisten</w>
ver hin
st ability</w>
m ember</w>
ma kes</w>
g ran
Land wirtschaft</w>
asp ects</w>
t yp
w a</w>
c r
tatsäch lich</w>
ta x
Mar kt</w>
W oh
ci r
l er
p ack
dra w</w>
h as
200 7</w>
acc ession</w>
E le
Möglich keiten</w>
in- Office</w>
Entschließ ungs
re main
S ep
Presiden t-
lab our</w>
Verfü gung</w>
Kon fli
D en
benef it</w>
Fischer ei
h en
un ion</w>
wes en</w>
rel ation</w>
re main</w>
Sch ul
Gesch äf
Transpar enz</w>
or ing</w>
ac ro
gi c</w>
F amili
Dialo g</w>
o ds</w>
f rie
consu mer</w>
sever al</w>
e ful</w>
up on</w>
gemä ß</w>
Sta ats
transpar ency</w>
Gesund heits
B an
p at
recom mend
fo reign</w>
zus etzen</w>
W TO</w>
Un s
O ur</w>
pro ject</w>
Disk ussion</w>
si eht</w>
Sel b
n utzen</w>
wen ig</w>
Do ku
pop ulation</w>
f eh
rupp e</w>
le ar
Seit e</w>
l ö
o ff</w>
app ly</w>
ig keiten</w>
tre ffen</w>
Rah men
bed au
best ehen</w>
ü bri
d ri
gnis se</w>
ver kehr</w>
Te chn
abo ve</w>
zus ätz
jus ti
mor gen</w>
is ierung</w>
for men</w>
b an</w>
M eine</w>
H e
ich te</w>
demokrati schen</w>
men sion</w>
re lev
bo dy</w>
a -
il l
ge wis
Entschei dungen</w>
h im</w>
contribu tion</w>
Beschäf tig
ar o
Er zeu
a vo
i lities</w>
Direc tive</w>
ver m
tom orrow</w>
gen t</w>
best eh
Drit t
Pro jek
rupp en</w>
President- in-Office</w>
vot ing</w>
s ci
wün schen</w>
ä lt</w>
st ab
n immt</w>
glei chen</w>
le gi
sp richt</w>
men ted</w>
p pen
respon se</w>
D am
t räge</w>
civi l</w>
busin ess</w>
prac tice</w>
Em pfeh
ges etz
he ben</w>
verbesser n</w>
Au ßer
disc ussion</w>
W es
gleich zeitig</w>
c ro
b are</w>
G u
gli chen</w>
our selves</w>
Th erefore</w>
Kin der</w>
addi tion</w>
Secon dly</w>
üh ungen</w>
techn ical</w>
zun ächst</w>
spe ak</w>
Lissab on</w>
communi cation</w>
R o
setz t</w>
kommen s</w>
l ands</w>
val ues</w>
guaran te
tu rel
hel d</w>
riteri a</w>
ex isting</w>
struc ture</w>
sch utz
riteri en</w>
terror ism</w>
ch tet</w>
is ation</w>
f rü
F R</w>
he ar
pa y</w>
bal ance</w>
Sep t
h atten</w>
unser em</w>
U kra
m ing</w>
servi ce</w>
sh are</w>
deter min
c riteria</w>
anges ichts</w>
en ge</w>
W eit
g ungs
stand ing</w>
wä h
se ems</w>
sch ul
Zweit ens</w>
ing ly</w>
colleag ues</w>
exc lu
leg ung</w>
p ite</w>
O pf
co hes
ei ther</w>
m ed</w>
ans wer</w>
re fle
Sept ember</w>
Außer dem</w>
institu tion
proced ures</w>
su ch
ständi gen</w>
S an
po ver
No v
provis ions</w>
fall en</w>
get an</w>
ple ased</w>
Ver tr
ex pen
B ud
te i</w>
ei g
ro ad</w>
O ne</w>
äu ß
In di
c ated</w>
dan ke</w>
re pe
Angele genheit</w>
H and
con fi
är e</w>
Tex t</w>
invest ment</w>
R isi
ad ing</w>
beit ra
je den</w>
W er
kl ar
elec tions</w>
r ate</w>
bek ämpf
be für
M is
K ap
auf zu
200 8</w>
Bestimm ungen</w>
priv ate</w>
m als</w>
Kamp f</w>
sen se</w>
Geschäf ts
el en</w>
ktion s
N utz
er heb
ass istance</w>
K ön
Z un
so on</w>
vi ously</w>
a si
und s</w>
con tain
viol ence</w>
st verständlich</w>
et wa</w>
Gewal t</w>
ur ing</w>
l te</w>
sta ge</w>
vorgesch la
F ern
ati v
Ergeb nisse</w>
t abled</w>
c ts</w>
an z</w>
rit ts
b zw
R ats
bzw .</w>
un til</w>
S pra
s einem</w>
f ern</w>
gen d
Menschenre chts
ha ppen
wo bei</w>
se x
pre siden
expres s</w>
milit ary</w>
Re cht
ologi cal</w>
hel fen</w>
al tern
prü fen</w>
sion s
st ance</w>
eh e</w>
L ei
oura ble</w>
Gro ß
or gan
Arbeitneh mer</w>
P ak
ep t</w>
as ked</w>
E i
z er
F est
K l
demon str
cru cial</w>
carri ed</w>
stat ement</w>
Russ land</w>
Bem ühungen</w>
sor gen</w>
ri chten</w>
every one</w>
N ationen</w>
P ap
vor lie
sch ätz
succ ess</w>
s h</w>
cre ation</w>
Erfol g</w>
emp has
beitra gen</w>
1 1</w>
tri b
am b
increas ing</w>
cohes ion</w>
Gef ahr</w>
gi en</w>
c are</w>
P unkte</w>
fis hing</w>
ra di
t on
bie ten</w>
basi c</w>
om s</w>
Nov ember</w>
organis ations</w>
Ar m
sa ying</w>
schaft lichen</w>
U N</w>
adop t</w>
zeich net</w>
ste ad</w>
is ing</w>
et ary</w>
lin es</w>
le di
d -
eu te</w>
sag te</w>
Them en</w>
regul ations</w>
4 0</w>
sit z</w>
St u
sh or
erh ö
co ver
Wel t
tra ffi
G eld</w>
sätz e</w>
de pen
V öl
pover ty</w>
Finan zierung</w>
groß er</w>
Binnen markt</w>
s on</w>
th en
Angele genheiten</w>
al ist</w>
hä l
Solidar ität</w>
blei bt</w>
H ar
w ing</w>
succ ess
Auf merk
far mers</w>
fa ci
ne ver</w>
b ility</w>
qu ali
S lo
spe e
en e</w>
Zeit punkt</w>
Aufmerk samkeit</w>
g in
fac e</w>
sol chen</w>
it em</w>
d el
si gkeit</w>
equ al</w>
berücksichti gt</w>
D inge</w>
eff ek
nation aler</w>
lan ge</w>
bil dung</w>
a ir</w>
F e
consequ ences</w>
o p</w>
g or
tra ining</w>
minis ter</w>
Aussch uß</w>
inte gr
ge ben
M an</w>
z ed</w>
unser es</w>
g -
be deut
tor en</w>
vi l
s atis
Dies es</w>
Industri e</w>
b ür
sel s</w>
lan gu
ledi glich</w>
bit te</w>
Mar k
gh out</w>
bis her</w>
T ä
increas ed</w>
M E
ten ce</w>
Am ster
pra kti
institu tional</w>
am eri
Do ch</w>
vorgesch lagen</w>
appli cation</w>
zei gen</w>
l uss
Inte gration</w>
ord n
lei der</w>
genann ten</w>
reques t</w>
ein heit
k o</w>
prot ect</w>
Stell ung
cor rec
Fre iheit</w>
nam ely</w>
me tho
St at
P rinzi
at en
Präsiden ten</w>
ati sti
tei li
il legal</w>
ür z
geh end</w>
A C
ermögli chen</w>
Ko ordin
An satz</w>
ver gangenen</w>
ec ting</w>
re duce</w>
Fol gen</w>
re ligi
rel ating</w>
h ier
ck en</w>
wi er
inter nationale</w>
dis ast
ff nung</w>
every thing</w>
clos ed</w>
Agen da</w>
V or</w>
K rie
ob wohl</w>
present ed</w>
ck ing</w>
to ber</w>
mo der
z entr
sch reit
D ru
ta ge</w>
requi red</w>
st eu
sidi ar
in ed</w>
Ein wander
Ukra ine</w>
sp i
lo t</w>
O p
sho w</w>
pers ön
Inter net</w>
vor gelegt</w>
fol gt</w>
u ral</w>
program m</w>
chall eng
wis sen
Änder ung</w>
Inform ations
1 0
prop er
val ue</w>
c ol
rit ten</w>
ru le</w>
clo se</w>
instru ments</w>
require ments</w>
opport unities</w>
sch le
erst er</w>
W hen</w>
un abhängi
t es
S ec
devel op</w>
ac tive</w>
men ten</w>
fol ge</w>
gen der</w>
z eit
H ier</w>
Proz ess</w>
ff enen</w>
att emp
Grün den</w>
Er stens</w>
H andel</w>
bud getary</w>
ad s</w>
t ungen</w>
consu l
me isten</w>
ver ab
hil fen</w>
1 2
Dam it</w>
Min der
I r
spe ak
me et</w>
ta kes</w>
o -
Sch wier
im medi
nat ure</w>
tei en</w>
A ut
eigent lich</w>
bestimm te</w>
th us</w>
an erk
streng ungen</w>
Sit zung</w>
prom ot
schie den</w>
Th ank</w>
throu ghout</w>
Volk s
L eit
st in
f -
ant ly</w>
re gre
partn er
o ft</w>
c s</w>
Ira n</w>
Be teili
Protokol l</w>
Er fahr
con tra
our cen</w>
ur s</w>
fo und</w>
ade qu
wieder hol
instru ment</w>
st ei
pri orities</w>
ti er
ell er</w>
wen det</w>
W is
cir c
Wah l
wichti ger</w>
Re ch
Arbeitsplätz e</w>
erfol gre
tu al</w>
Ö ffent
M än
Gr enz
ge tro
I de
Haushal t</w>
omm uni
ut ely</w>
Investi tionen</w>
Con stitu
w ater</w>
enth alten</w>
ul g
Sa che</w>
f ast</w>
r .</w>
o ben</w>
begrüß en</w>
aro und</w>
weit eren</w>
con v
hin weisen</w>
Wettbewer b</w>
wled ge</w>
K re
E N</w>
tiv ity</w>
s an
y l
jus tice</w>
Flu g
j ob</w>
N A
ger ungen</w>
T at</w>
prep ared</w>
Person en</w>
o s</w>
bew us
Bil dung</w>
ther more</w>
wi der
w ec
Aspek te</w>
qui ck
re f
Par ty</w>
establis h</w>
poten tial</w>
beg inn
men tion</w>
bur g</w>
val u
publi k</w>
Sch en
zweit e</w>
verschie den
us sions</w>
fun ktion
U hr</w>
we ek</w>
An strengungen</w>
c ations</w>
ke ep</w>
initi atives</w>
is ches</w>
f est</w>
Vor aus
po wers</w>
hät ten</w>
li mit
Verbrau cher
b ank</w>
Verpfli chtungen</w>
comm unity</w>
Regel n</w>
direc t</w>
amoun t</w>
li gen</w>
F ur
F eh
t on</w>
An nahme</w>
F le
dem and</w>
U m</w>
S ü
zeich ne
pre vious</w>
ment ar
deci ded</w>
s timme</w>
pur su
besch äf
ag rap
N eu
sp or
Gr enzen</w>
e ed
F ahr
sp ä
cri tic
ier ten</w>
em er
su chen</w>
confli ct</w>
n ommen</w>
h ung</w>
tn is
Verf assung</w>
hist or
establis hed</w>
sch wer
Z wei
st off
vi er</w>
K an
adv an
be hör
Bem erk
los sen
kon zent
gewi esen</w>
. .
pre par
H oh
pf lich
reach ed</w>
Be wer
as soci
arbeit ung</w>
la st
ge l</w>
f ig
sek tor</w>
pres sure</w>
da ys</w>
H um
il leg
exter nal</w>
versu chen</w>
vel s</w>
y ed</w>
read ing</w>
d om
si ert</w>
auf genommen</w>
decis i
G lob
t ask</w>
Zah l</w>
mo vement</w>
ig ran
gu id
De ut
tal king</w>
expres sed</w>
t liche</w>
rou ght</w>
li ve</w>
Ab schließend</w>
Hin sicht</w>
geb ie
zieh ung</w>
Z um</w>
discrimin ation</w>
St är
add ress</w>
betre ff
Terror ismus</w>
v al</w>
relev ant</w>
re pres
her r
imple mented</w>
ra ised</w>
ä stin
lu ß</w>
Dar über</w>
spiel en</w>
ak tu
l or
setz ungen</w>
Änder ungen</w>
men d</w>
fun den</w>
con t
usam men</w>
fisher ies</w>
Pal est
k enn
r aten</w>
monit oring</w>
Un i
S um
al es</w>
acro ss</w>
Mit teilung</w>
ek s</w>
Lan des</w>
sh e</w>
th eless</w>
vel op
n t</w>
angem essen
poin ted</w>
Wo che</w>
Qu alität</w>
mö chten</w>
N r.</w>
Schwier igkeiten</w>
Arbeits lo
drück lich</w>
as ser
D aten</w>
le vels</w>
Z u</w>
Instru ment</w>
en able</w>
Vertra gs</w>
vic tim
Fran ce</w>
F und</w>
b riti
streng then
be m
S we
erinn ern</w>
Haup t
Sch ließ
Mitgliedsta at</w>
Bar ro
cri me</w>
Ver kehrs
gli che</w>
B u
N u
Frie den
ff er</w>
schn ell</w>
m a</w>
conclu sion</w>
f ern
eindeu tig</w>
th y</w>
bek annt</w>
fi ve</w>
ell ing</w>
De velop
20 20</w>
bed ingungen</w>
Abgeordne te</w>
direc tion</w>
B ank</w>
wa ste</w>
ges sen</w>
L es
Ratsprä siden
entwick eln</w>
foc us</w>
inclu ded</w>
wh ose</w>
sci enti
experi ence</w>
Af gh
h u
b ein
quick ly</w>
zeh n</w>
gri ffen</w>
Amster dam</w>
e vi
sch ütz
an ia</w>
Öffent lichkeit</w>
add res
ec e</w>
spru ch</w>
ein ger
F ren
Gesetz geb
aus reich
k ein
po st
pro sp
eff ort</w>
re view</w>
g ungen</w>
victim s</w>
ver standen</w>
In nov
f our</w>
bal an
dou bt</w>
ter ran
ar gu
K riterien</w>
L assen</w>
Dienstleist ungen</w>
be handelt</w>
U S</w>
Portu gal</w>
tel l</w>
berücksichti gen</w>
c are
ti ger</w>
konzent ri
I rel
port ing</w>
challeng es</w>
tu res</w>
t ely</w>
Kon ferenz</w>
fü h
el ten</w>
P len
Irel and</w>
än de</w>
dar stellt</w>
M al</w>
p er</w>
B ulg
Ges am
effec ts</w>
res er
Rats vor
rec ently</w>
drin gend</w>
can di
partn ers</w>
zah l</w>
di e
co st</w>
des ig
j ün
k riti
absol utely</w>
ga b</w>
s po
mat eri
too k</w>
v ital</w>
Unter such
d au
s la
1 4
f ran
F lü
imple ment</w>
er greifen</w>
gri ff</w>
Arm ut</w>
no te</w>
R ess
Opf er</w>
con fir
ol er
than ks</w>
Posi tion</w>
Fren ch</w>
Con ference</w>
el ines</w>
Demo cr
Ver teidi
H ö
lan gen</w>
b illion</w>
bor ders</w>
K rank
der zei
ni em
Mitgli ed</w>
tal k</w>
An erk
p u
suffici ent</w>
comple tely</w>
Mar kt
sup ported</w>
verhin dern</w>
er ne
z usammen</w>
g ül
end lich</w>
tre at
sec tors</w>
bil ater
1 3</w>
Wettbewerbs fähigkeit</w>
W ei
gerich tet</w>
H a
fo re
agri culture</w>
gesam t</w>
ehr te</w>
re ality</w>
z es</w>
wir ken</w>
kra ft
sh ort</w>
re forms</w>
d i</w>
gh bour
K ern
Ta g</w>
um s</w>
gehör en</w>
re over</w>
Develop ment</w>
m ein</w>
B riti
sib ilities</w>
f es
ge o
con trol
reduc tion</w>
Zun ächst</w>
Sin ne</w>
N e
zus timmen</w>
exp lo
w ise</w>
be kommen</w>
imm igration</w>
mis sion</w>
ter t</w>
ver pflich
b rought</w>
fel low</w>
Organis ation</w>
W il
2 7</w>
A sy
Bel ar
ben ö
wi esen</w>
T i
Anerk ennung</w>
b ung</w>
bet onen</w>
ein gesch
pl om
we is</w>
out side</w>
hö ch
Wachst um</w>
m es
pack age</w>
lon g-
d .</w>
st ep
terran ean</w>
.. .</w>
su per
sh of</w>
haup t</w>
au t</w>
gi ving</w>
E ast</w>
struc tural</w>
erne ut</w>
Fre ih
em e</w>
Stellung nahme</w>
Medi terranean</w>
kl einen</w>
öffent liche</w>
n s</w>
mit ted</w>
1 8</w>
e ws</w>
I I</w>
parlia mentary</w>
gesch affen</w>
Handel s
Vertre ter</w>
Nach bar
stat us</w>
appro ved</w>
S icht</w>
ver gessen</w>
l ist</w>
ver treten</w>
best ä
a king</w>
ex tent</w>
Briti sh</w>
al lo
sor gung</w>
zu führen</w>
ge funden</w>
P L</w>
recei ved</w>
kul turel
ta g</w>
mo tion</w>
pos sibility</w>
busin esses</w>
techn ology</w>
re ach</w>
Minis ter
wichti gsten</w>
P -
li ance</w>
rei ben</w>
Afri ca</w>
al ong</w>
die jenigen</w>
Regier ungs
develop ed</w>
stan ces</w>
ac ity</w>
Mon aten</w>
zu mindes
sta aten</w>
199 8</w>
ri cht
Gipf el</w>
in fra
ass ungs
al most</w>
he ard</w>
Wah len</w>
vers ity</w>
ung sp
ach ten</w>
fi g</w>
n ö
kan ischen</w>
zumindes t</w>
appli ed</w>
Beit ritts
Gemein samen</w>
ck s</w>
Beschäftig ungs
B i
t lichen</w>
Frie den</w>
presiden cy</w>
sel y</w>
k rä
pre hen
Vertr auen</w>
H altung</w>
pri ce</w>
neh m
A gre
1 4</w>
un employment</w>
represent atives</w>
a way</w>
M al
da durch</w>
treat ment</w>
circ um
bess ere</w>
Fir stly</w>
con n
Vereinbar ung</w>
Ener gie</w>
fin ally</w>
discuss ed</w>
dis t
Beit ritt</w>
Les ung</w>
ra h
obli g
st ress</w>
an ischen</w>
C han
gu ten</w>
Dec ember</w>
stär k
A pri
di enen</w>
kur z</w>
p un
über haupt</w>
fün f</w>
Par teien</w>
f s</w>
behin d</w>
assess ment</w>
addi tional</w>
encoura ge</w>
De z
Mittel me
c ted</w>
befür wor
h äu
Lu ft
ein schließlich</w>
ck t</w>
Fü hr
re qu
lö sen</w>
ier ungs
ver k
cro ss
R ed
P P
ge fordert</w>
For derung</w>
de p
f lo
O n
docu ment</w>
e v
nat ural</w>
h ne</w>
gn is</w>
coordin ation</w>
er sch
ent er</w>
dis e
prop er</w>
erwä hnt</w>
bestimm ten</w>
Re public</w>
ges und
alle in</w>
finan cing</w>
bi o
z ös
ä d
ren ew
der ar
bed ingt</w>
se it
s us
b auen</w>
Apri l</w>
ander er</w>
Sek tor</w>
fre ue</w>
cre ating</w>
fä hi
dan ger
Fur thermore</w>
nis sen</w>
N ations</w>
Ein zel
pri ces</w>
inf lu
e qui
ens uring</w>
par agrap
l ing
sich ern</w>
mo del</w>
St elle</w>
li ving</w>
Re publik</w>
trib ut
lo se</w>
our s</w>
competi tiveness</w>
at h</w>
y on
disc ussions</w>
consider ed</w>
Ver bin
hör en</w>
prac tical</w>
li ert</w>
Inter national</w>
e li
S y
Regel ung</w>
tr on
th ern</w>
finanzi ellen</w>
bal d</w>
z äh
su l
li erung</w>
con om
con duc
timm ung</w>
o ten</w>
ilit ä
Über wach
Regi on
emis sions</w>
Kommission s
Dru ck</w>
E conom
ü hr
ri gen</w>
kon ferenz</w>
Dez ember</w>
m and
utz t</w>
is ch
even ts</w>
Ein igung</w>
Bulg ari
Re formen</w>
off er</w>
ann ual</w>
Bal k
sit ting</w>
x is</w>
An frage</w>
je kt</w>
brau cht</w>
ag ung</w>
beg in</w>
Land wir
enth ält</w>
A d
le ft</w>
Heraus forderungen</w>
confi dence</w>
cap acity</w>
sicher zustellen</w>
streng then</w>
erzi elt</w>
z one</w>
n or</w>
1 .
remain s</w>
is ely</w>
disc uss</w>
um -
f amili
men sch
bre chen</w>
C ent
hin zu
guid elines</w>
del a
conn ection</w>
c amp
un acceptable</w>
legi tim
administra tive</w>
Afgh an
I T</w>
akzep tieren</w>
V is
W ahr
um gesetzt</w>
tran si
re jec
kno wn</w>
regi me</w>
Initi ativen</w>
un ver
Geschäfts ordnung</w>
O f</w>
unterstütz e</w>
Nat ürlich</w>
re in
ber e
sc ope</w>
zü gi
bit ten</w>
is ts</w>
gro und</w>
gen au
aff ected</w>
E C</w>
er neu
it ing</w>
te te</w>
wä l
gel ten</w>
Or gan
bewus st</w>
en te</w>
außer dem</w>
effici ency</w>
sin n
exp ect</w>
Prior itäten</w>
Wir k
or d</w>
aussch uss</w>
fest gelegt</w>
einzi ge</w>
Disk rimin
Ihr er</w>
direc tly</w>
H ung
for ces</w>
ge kommen</w>
vi a</w>
equ ality</w>
konkre te</w>
d on
ad d</w>
Uns ere</w>
ne t
is es</w>
fic ally</w>
faci lit
Verein ten</w>
ex er
di c
adop tion</w>
J e
E- Fraktion</w>
ro ati
getro ffen</w>
Z wec
S eiten</w>
deta il
fre ien</w>
mar i
go ods</w>
me t</w>
D an
lang fris
gesam te</w>
ein gehen</w>
pris es</w>
lo k
fre i
konn te</w>
ho ffen</w>
ver an
selb stverständlich</w>
M einer</w>
8 0</w>
stat ed</w>
buil ding</w>
avo id</w>
w and
k rise</w>
Entschließungs antrag</w>
überzeu gt</w>
kre ich</w>
aussch usses</w>
versu cht</w>
T ro
Fäl len</w>
com prehen
Finan zi
humanit arian</w>
ge wesen</w>
Berich te</w>
g aran
ex pla
di ent</w>
ver letz
ere i</w>
Europ e
e gu
o ffi
Lebens mittel
ig keit</w>
as si
fu ge
schütz en</w>
neg ative</w>
es ter
D ro
as yl
h op
Kra ft</w>
F ak
bie tet</w>
Cent ral</w>
sol utions</w>
des pite</w>
plan s</w>
verm ei
con dem
Flü cht
ermögli cht</w>
Belar us</w>
kur z
zweit en</w>
fre iheit</w>
Barro so</w>
ti sche</w>
6 0</w>
Stab ilität</w>
tiv itäten</w>
ami ly</w>
Fir st</w>
Fran kreich</w>
j ud
An trag</w>
prec isely</w>
Zus timmung</w>
än dern</w>
le istet</w>
effec tively</w>
Wi der
ch ed</w>
f il
tr ying</w>
beg lück
p hi
künf tigen</w>
in tel
sto p</w>
w it
Democr ats</w>
star k</w>
hon ourable</w>
gele istet</w>
d ischen</w>
Agre ement</w>
k raten</w>
h ment</w>
difficul ties</w>
besch lossen</w>
fäl le</w>
def ence</w>
Zu ständi
Ver wendung</w>
anges prochen</w>
adequ ate</w>
je dem</w>
Wor ld</w>
se par
comm er
car ry</w>
occ a
c la
s th
person al</w>
erwar ten</w>
Kön ig
nei ghbour
P f
ver bin
är en</w>
Da bei</w>
v ements</w>
g as</w>
f amily</w>
sum mit</w>
sen si
Gener al</w>
open ha
aim ed</w>
vol le</w>
O st
r ates</w>
zu frie
reich e</w>
ir gend
b ra
ü ro
Viel en</w>
B ot
steh enden</w>
re ference</w>
Kul tur</w>
in stead</w>
Palest in
sh own</w>
alis ed</w>
vi ews</w>
o c
stär ker</w>
sch ä
rä gen</w>
char ge</w>
h es</w>
fran zös
Econom ic</w>
x em
Koh ä
inter pre
ester day</w>
richti ge</w>
Schließ lich</w>
gele gten</w>
contribu te</w>
ger t</w>
A chtung</w>
st en
vor gesehen</w>
et z</w>
ins gesamt</w>
la gs</w>
199 7</w>
un bedingt</w>
ju di
be ziehen</w>
accord ance</w>
O -
Milli ar
Ge or
su ffer
ver tre
rup tion</w>
go es</w>
ommuni k
1 6</w>
ver stehen</w>
ac y</w>
Jus tice</w>
l ten</w>
g ste</w>
über schreit
cl ari
Jun e</w>
All erdings</w>
bour g</w>
circum stances</w>
fa ir
Sch utz
saf egu
hu ge</w>
gel an
enter prises</w>
e ed</w>
it z
fo und
ür f
ö ff
h .</w>
Z entr
grat u
Beh and
P T</w>
Poli cy</w>
est ing</w>
ti tu
ac ts</w>
A n</w>
hin gewiesen</w>
Ress ourcen</w>
Ma y</w>
sch es</w>
Bei hilfen</w>
S en
partner ship</w>
per spec
on es</w>
ati c</w>
success ful</w>
war um</w>
Ger many</w>
Kon zep
A 5-0
at or</w>
rel ated</w>
ge tragen</w>
mes sage</w>
Ger icht
besteh enden</w>
proz ess</w>
gre at
w ell
besch rän
asyl um</w>
E mis
eh m
Binnen mark
accord ing</w>
p ut
Berei che</w>
Afghan istan</w>
Haushal tsp
läs si
disku tieren</w>
zwei fel
br ingt</w>
Re chn
r at</w>
orig in
zi eht</w>
w ron
com ments</w>
eh er</w>
commit ted</w>
mechan is
ge ments</w>
Ein f
min imum</w>
j un
conclu sions</w>
b s</w>
Durch führung</w>
impro ving</w>
c tive</w>
ge eig
ges ellschaft</w>
K atastrop
sicher lich</w>
m y
cre ated</w>
inten si
ausge zeichne
strate g
heu tigen</w>
Jus ti
tot al</w>
k or
P rü
consider ation</w>
M an
un er
allow ed</w>
beginn ing</w>
tor y</w>
Instru mente</w>
kl are</w>
govern mental</w>
Ver än
ati v</w>
Ges prä
con tent</w>
effici ent</w>
Kenn tnis</w>
Stär kung</w>
1 00</w>
st elle</w>
A t
je des</w>
chall enge</w>
inves tig
Ber u
ass er</w>
or den
ier te</w>
Pe ople</w>
spee ch</w>
consider able</w>
t oler
ge worden</w>
Br us
Lin ie</w>
Reg ulation</w>
indepen dent</w>
righ tly</w>
olo gie</w>
fal t</w>
Organis ationen</w>
Ber eit
So ci
hol d</w>
li es</w>
propos e</w>
Währ ungs
organis ation</w>
benef its</w>
provi ding</w>
provi des</w>
bo t</w>
on nen</w>
sa chen</w>
wi de</w>
allgem einen</w>
Deut sch
K or
No w</w>
en ding</w>
mar k</w>
wan ted</w>
re agi
durch geführt</w>
accep ted</w>
K ar
da p
pa id</w>
conv inc
innov ation</w>
f el</w>
si zed</w>
we ist</w>
lä gen</w>
yon d</w>
comb at</w>
call s</w>
So cial</w>
wer te</w>
particip ation</w>
d ro
ber ich
erfül len</w>
ach tet</w>
ti sch</w>
som it</w>
neu er</w>
ru ral</w>
l l
4 -0
st or
för dert</w>
comple te</w>
G rie
zeich nung</w>
s ession</w>
größ ere</w>
entschei den</w>
A L
aus es</w>
p r
Forsch ungs
t ritt</w>
Lös ungen</w>
E reig
Br üs
Ver gan
Nutz ung</w>
B .</w>
A ktion
prac ti
li ves</w>
vern ünf
implement ing</w>
sup ply</w>
de ath</w>
Re de</w>
Fra ktionen</w>
refer red</w>
N i
transpar ent</w>
lie be</w>
t our
di plom
crimin al</w>
A P</w>
k eits
exc ep
re fuge
ch ter</w>
läs st</w>
ausge wo
A p
re turn</w>
Brus sels</w>
pro vision</w>
alis m</w>
Kompromis s</w>
G an
medi um-
konn ten</w>
ar ing</w>
lat er
Ratsprä sident</w>
ün sti
i um</w>
for ced</w>
oper ate</w>
fas st</w>
be finden</w>
Sor ge</w>
deal ing</w>
fest stellen</w>
o il</w>
cap ital</w>
par ty</w>
o te</w>
mo d
erklär t</w>
Grund satz</w>
sth af
k ün
indi c
m ann
c ame</w>
scienti fic</w>
ligh ted</w>
h under
NA TO</w>
K ur
strate gic</w>
step s</w>
A s
un fortunately</w>
ol l
speci fically</w>
pur pose</w>
H af
seri ously</w>
Min utes</w>
En ga
F onds</w>
H e</w>
spe kt</w>
recei ve</w>
W erte</w>
staat lichen</w>
milit är
over all</w>
N G
om men
introduc tion</w>
colleag ue</w>
promot ing</w>
h ard</w>
spezi f
Währ ung</w>
gel t</w>
st atisti
exer c
eth n
d le</w>
Zi vil
Vor sitz
Pra xis</w>
vorlie genden</w>
s äm
gegenwär tig</w>
Wis sen
gen cy</w>
is ten
demokrati sche</w>
br auch</w>
gel ö
Gesch ichte</w>
k ürz
T ier
entsprech enden</w>
ur gent</w>
be yond</w>
clo sely</w>
ver si
si x</w>
te ten</w>
sel f-
A spekt</w>
deci de</w>
re mind</w>
notwendi gen</w>
Sta at</w>
respon d</w>
re ich</w>
ere by</w>
tra v
erzi elen</w>
tro tz</w>
ex ac
finanzi elle</w>
reg is
Fe bru
R O</w>
tain ed</w>
Vergan genheit</w>
sy m
cross -
b ack
Re ak
M ob
An fang</w>
ü ck</w>
pla ced</w>
k oh
competi tive</w>
prof es
tr au
1 7</w>
je de</w>
ber icht</w>
M U</w>
ex per
we is
politi scher</w>
Produ kte</w>
spe aking</w>
eingesch rän
Erklär ungen</w>
limit ed</w>
hä lt</w>
ast ern</w>
con ci
Zwei fel</w>
201 3</w>
stär ken</w>
v eh
b rie
st ud
Tei l
a in</w>
EC U</w>
vorgeschla genen</w>
geh ö
b ly</w>
den ts</w>
br ing
loo king</w>
expen di
pro duce</w>
verpflich tet</w>
Inform ation</w>
rel ation
spr ün
Pri v
long- term</w>
altern ative</w>
her aus
Rom a</w>
ih res</w>
bi g</w>
happ en</w>
meas ure</w>
Ein satz</w>
Par tei</w>
ge wäh
an a</w>
inten ded</w>
commit ments</w>
ständi ge</w>
dec lar
d nis</w>
kommen den</w>
1 3
Ho w</w>
erk ennen</w>
la un
el ek
A si
ge zeigt</w>
bere chti
requi res</w>
Projek te</w>
kno wledge</w>
balan ced</w>
verab schie
To day</w>
simp li
p ing</w>
Ab satz</w>
ma x
R au
aff t</w>
Auf gaben</w>
prop or
an no
Ent wurf</w>
Hum an</w>
a ig
h nung</w>
tra g
Gebie ten</w>
hist ory</w>
hal ten
th ous
S E</w>
mäß ig</w>
zeu gung</w>
ac tivity</w>
en ds</w>
sub si
o ffen</w>
expendi ture</w>
Regel ungen</w>
ha f
N ahr
de li
Jun i</w>
Ei gen
a vi
Lu xem
Pro jekt</w>
G lau
ex ist</w>
al ise</w>
Pro c
I ris
Grie chen
alis ts</w>
Ger man</w>
te x
p ass
go sla
e asi
medi a</w>
H eute</w>
fli cht</w>
di versity</w>
Au stri
paragrap h</w>
ern sthaf
dra wn</w>
end or
lea ve</w>
Gre ece</w>
f rau
D enn</w>
f s
Sum mit</w>
Ein haltung</w>
my self</w>
inc or
Sch luss
N ieder
künf tig</w>
bo dies</w>
ver gen
system e</w>
wesent lich</w>
produc t</w>
n ern</w>
set ting</w>
dem ands</w>
Constitu tion</w>
Europe ans</w>
openha gen</w>
Deutsch land</w>
ri chtungen</w>
B a
Janu ary</w>
tur en</w>
gesch ehen</w>
ein gesetzt</w>
ob ser
verfol gen</w>
pas sen
letz te</w>
wer t
Pro di</w>
Ak tivitäten</w>
li er</w>
Be trie
industri al</w>
Vor bereit
Koordin ierung</w>
Behand lung</w>
camp aig
al one</w>
R aum</w>
we g</w>
ges t</w>
main tain</w>
Me tho
Arbeitslo sigkeit</w>
En viron
richt linie</w>
gan ze</w>
Grund rechte</w>
re a</w>
Verwal tung</w>
gere cht</w>
über nehmen</w>
1 5
pro b
Prior ität</w>
sch o
ter ung</w>
Verwal tungs
Diskrimin ierung</w>
lauf en</w>
S timme</w>
Iris h</w>
w ah
po or</w>
Nu n</w>
Kap it
construc tion</w>
Liber alisierung</w>
H il
sup porting</w>
ab ge
v ely</w>
ur sprün
Ira q</w>
je wei
enti re</w>
asp ect</w>
gesch i
gegenwär tigen</w>
erle i</w>
e vent</w>
proper ly</w>
geo gra
par ts</w>
pre ci
Ge b
li cht</w>
re -
anim al</w>
amb iti
d aten</w>
cent ral</w>
z ö
Chr isti
leit en</w>
bet on
m il
e as
ve au</w>
durch aus</w>
da gegen</w>
Aktion sp
sam m
m ern</w>
b ah
be darf</w>
any thing</w>
o t</w>
dar stellen</w>
a dap
lüs se</w>
gin n</w>
Ver häl
Be ginn</w>
typ e</w>
gen s</w>
establis hing</w>
fol low</w>
our ce</w>
G ed
be halten</w>
tion ing</w>
r a</w>
prü ft</w>
ar ran
k rimin
Verpfli chtung</w>
reas on
gegen sei
c el
y esterday</w>
ste ts</w>
S M
ästin ens
wron g</w>
f ru
au c
t ari
di gung</w>
jo in</w>
c ement</w>
199 6</w>
zi ert</w>
ti e
candi date</w>
E S</w>
verfü gen</w>
pa in</w>
auth ority</w>
f ying</w>
tre i
au di
H ei
re present</w>
Ir land</w>
auf merk
li ation</w>
le gt</w>
gelö st</w>
su s</w>
as sen
ex change</w>
ent schieden</w>
Har mon
Ein richtung</w>
medium- sized</w>
Sch ritte</w>
sho ws</w>
glau ben</w>
V on</w>
produc ed</w>
H inter
spi ri
si chten</w>
P res
sch wer</w>
si mi
poli ce</w>
B ur
we eks</w>
Al ban
discuss ing</w>
Den noch</w>
ä hn
v an</w>
do m</w>
Kolle ge</w>
ger ne</w>
entwick elt</w>
du ty</w>
alis mus</w>
re fer</w>
develop ments</w>
R ules</w>
Al though</w>
s si
bes ten</w>
simi lar</w>
ch ec
f und</w>
conclu de</w>
Char ter</w>
Mittel n</w>
Dur ch</w>
so fern</w>
Wor te</w>
ambiti ous</w>
h ome</w>
posi tiv</w>
fol gerungen</w>
Er n
isti schen</w>
ell schaften</w>
An ges
Wo chen</w>
genu g</w>
call ing</w>
Un fortunately</w>
Vol k</w>
konzentri eren</w>
gi ves</w>
P s</w>
D elegation</w>
f ts
caus ed</w>
Brüs sel</w>
w on
An der
un anim
genu ine</w>
Ch ance</w>
fi zierung</w>
stud y</w>
Da zu</w>
a den</w>
uns ch</w>
ist ent</w>
emphas ise</w>
vor han
ris ks</w>
Janu ar</w>
pres s</w>
de ten</w>
ur y</w>
grenz überschreit
Gesetzgeb ung</w>
f l
prü fung</w>
anti -
A cc
produc ers</w>
high er</w>
zi el
in ation</w>
Beteili gung</w>
sc ale</w>
olog ischen</w>
wh om</w>
wär en</w>
m .</w>
Aus gaben</w>
j ähr
aufmerk sam</w>
Nahr ungs
repres ents</w>
end um</w>
impro ved</w>
emp ha
o w
Enga gement</w>
b würdi
Absch luss</w>
tr ary</w>
op tim
P lat
Milliar den</w>
be auf
For derungen</w>
re d
m el
n ie</w>
S ti
. m.</w>
des cri
Partner schaft</w>
ur ge</w>
verfol gt</w>
wor d</w>
high ly</w>
it able</w>
bar keit</w>
Th ir
increas ingly</w>
C om
Sin ce</w>
schaft liche</w>
Fortsch ritt</w>
F alle</w>
Fre i
e arly</w>
happen ed</w>
anim als</w>
ig nor
In fra
Stra ß
titu de</w>
cri tical</w>
wün sche</w>
ru s</w>
hin ter</w>
fäl lt</w>
an ts</w>
langu age</w>
Sec urity</w>
enor m
sit u
Zentr al
e ß</w>
d y
ob viously</w>
th e
7 0</w>
verantwor tlich</w>
g ar
t op
Tur k
Anges ichts</w>
shi ps</w>
af f</w>
techn ologi
gel ten
po l</w>
op position</w>
sch lagen</w>
on s
ab gel
partn er</w>
d elegation</w>
tr ust</w>
l ater</w>
Nat ur
Bei fall</w>
ate gor
H and</w>
achie ving</w>
end gül
emp lo
Überwach ung</w>
Me chan
Überein kommen</w>
vorsch lag</w>
re mo
grund lage</w>
entsprech end</w>
ack no
so -
e ad</w>
ab kommen</w>
nam e</w>
le t
c ity</w>
I tal
stand s</w>
außer halb</w>
ac qu
verbesser t</w>
form er</w>
Unter neh
our n
li mit</w>
comp ens
ran gi
profes sion
Asy l
strengthen ing</w>
we t
s ent
c al
19 8
par la
convinc ed</w>
Ital y</w>
us eful</w>
mann er</w>
Mittelme er
con sen
us es</w>
curr ency</w>
se chs</w>
fin de</w>
gan zen</w>
aim s</w>
stat ements</w>
Ver kehr</w>
he ar</w>
reduc ing</w>
le ading</w>
di gen</w>
sign ed</w>
requ ire</w>
h y
Mar ch</w>
intro duce</w>
forder ung</w>
erfül lt</w>
Fol ge</w>
C ar
grei f
Mo reover</w>
ni ed
h ase</w>
ß er</w>
Leit linien</w>
struc tures</w>
Span ish</w>
Un abhängi
regre t</w>
c ut</w>
offen sichtlich</w>
sa ys</w>
des er
Empfeh lungen</w>
thre at</w>
docu ments</w>
Maß e</w>
introduc ed</w>
infra structure</w>
glei che</w>
Ma cht</w>
Kon tin
out come</w>
some times</w>
hervor ra
zah len</w>
veh ic
Sch wer
ther wise</w>
Program ms</w>
thin king</w>
Lei der</w>
Ameri can</w>
wan ts</w>
Europä er</w>
Disk us
gel ungen</w>
ear lier</w>
la ws</w>
con ference</w>
te dly</w>
comp any</w>
Gemein schaft
än dert</w>
Au gen</w>
künf tige</w>
T sch
respon sibilities</w>
re member</w>
Wieder auf
hi le</w>
Gleich zeitig</w>
g ei
Fo reign</w>
e y
ne twor
j äh
dam age</w>
an ge</w>
übri gen</w>
si eren</w>
B us
Ma i</w>
Fle xib
zeich nen</w>
pre vention</w>
Di mension</w>
re te</w>
beg innen</w>
recogn ise</w>
analy sis</w>
ati es</w>
J ap
o l</w>
mon etary</w>
ele ments</w>
Mär z</w>
Bewer tung</w>
pl ause</w>
an geht</w>
Or t</w>
rapporte urs</w>
tri eben</w>
gan gs
L o
is en
so- called</w>
N etz
ap preci
Euro -
conc ept</w>
igran ts</w>
Agrar politik</w>
com ment</w>
Gr unde</w>
E l
pro fi
spiri t</w>
Fisch erei</w>
be vor</w>
recogn ition</w>
t ations</w>
häu fig</w>
zahl reiche</w>
multi later
betro ffenen</w>
enti rely</w>
pos es</w>
ge wal
Fun da
verschieden e</w>
m ember
con st
vermei den</w>
con trary</w>
k ap
Char ta</w>
un mittel
To des
T our
inte gri
S pain</w>
J o
orig in</w>
ti ef
influ ence</w>
Z y
reduc ed</w>
no ch
bet rä
In de
fir stly</w>
sen d</w>
hoh en</w>
Minis ters</w>
R um
s agt</w>
i ma
enth al
möglich st</w>
Kohä sions
fac ing</w>
mögli chen</w>
me an
N ever
verein bar
ol s</w>
S outh</w>
Wor ten</w>
Spra che</w>
gen ommen
comb ating</w>
coun ter
ander em</w>
Landwir te</w>
Never theless</w>
han del</w>
O c
Ar gu
wesent lichen</w>
comprehen sive</w>
ad ded</w>
größ ten</w>
P lan</w>
liber alisation</w>
ordn ungs
schn it
Ratsvor sitz</w>
Environ ment</w>
fre ut</w>
be coming</w>
be fassen</w>
Glob alisierung</w>
satis fac
region alen</w>
bo o
ho ch
I s</w>
Af ter</w>
zu folge</w>
Woh l
T im
üro krati
ar ch
mögli cherweise</w>
dis h</w>
Verbin dung</w>
m ly</w>
fahr ens</w>
as king</w>
ac ci
ger s</w>
consen sus</w>
gewähr leistet</w>
flexib ility</w>
entsprech ende</w>
aus ch</w>
pe ten
establis hment</w>
bro ad</w>
S ig
li cherweise</w>
erforder lichen</w>
s ources</w>
under standing</w>
schwieri g</w>
zi eren</w>
welt weit</w>
I hr</w>
Schen gen</w>
fest gestellt</w>
di mension</w>
schein lich</w>
pre vent
f ach
grow ing</w>
mark s</w>
ein iger</w>
differ ences</w>
Grund sätze</w>
Um stän
dire kt</w>
Richt linien</w>
Tä tigkeit</w>
zu g
territ ori
ein setzen</w>
z .</w>
Änderungsant rägen</w>
incor por
mp tion</w>
lä gt</w>
cross- border</w>
conc rete</w>
clos er</w>
Ged an
Qu es
happ y</w>
danger ous</w>
inform ed</w>
anno un
th ought</w>
pers on</w>
Ira k</w>
Min dest
geh oben</w>
Innov ation</w>
G est
G aran
1 9</w>
ra ise</w>
beton t</w>
st aff</w>
N L</w>
K ris
An aly
as su
ran ge</w>
ent spricht</w>
Agen tur</w>
Zeit raum</w>
Sp iel
B au
metho ds</w>
Mo d
ei gene</w>
b au
Inde ed</w>
advan tage</w>
U K</w>
prob ably</w>
C or
außer orden
Le ist
man u
en heit</w>
perspec tive</w>
am tier
Gre en</w>
ges tern</w>
Best and
recommend ations</w>
derzei tigen</w>
ander s</w>
practi ces</w>
G ruppe</w>
unter nommen</w>
relation ship</w>
networ ks</w>
la g
pol lu
cover ed</w>
se e
gen er</w>
König reich</w>
ver s</w>
Bel gi
g st</w>
Wirtschafts -</w>
per man
pe ac
mor ning</w>
M id
sta g</w>
s ort</w>
p ati
ali en
Ameri ca</w>
l ess
disku tiert</w>
appli es</w>
Ru le</w>
fol gen</w>
dis p
nor m
gel eit
Rum än
s ent</w>
maß en</w>
bu ild</w>
direc tives</w>
el se</w>
ver kehr
Struktur fonds</w>
San ktionen</w>
S pe
Ab stimm
er leich
commer cial</w>
str ong
ch ung</w>
vor an
exac tly</w>
Selb st
Bed ürf
wirtschaf ts
kon om
ag ing</w>
Frieden s
be d</w>
Mein ungs
Proble men</w>
Gebie te</w>
Griechen land</w>
Erfahr ungen</w>
refuge es</w>
beglück wünschen</w>
Prinzi p</w>
Auf nahme</w>
struk tur</w>
h om
antwor ten</w>
Kra ft
san ctions</w>
co ver</w>
W ich
st reichen</w>
cu st
o x
ac ks</w>
le hnen</w>
1 7
we ap
sex u
au ff
am ber</w>
Palestin ian</w>
strong ly</w>
forder e</w>
defin ition</w>
a di
län dlichen</w>
inter vention</w>
S ome</w>
au tom
Gener al
Be denken</w>
An p
institution ellen</w>
r ing</w>
beauf tra
un ge
parla mentar
jen e</w>
is hed</w>
C an
wol lte</w>
noch mals</w>
n ütz
Harmon isierung</w>
for get</w>
Techn ologi
Regierungs konferenz</w>
N icht
tain ing</w>
lan s</w>
N ur</w>
st ä
elec ted</w>
& #
&# 9
me th
sch rän
M c
ä um
prin zi
Proc ed
ti ally</w>
S onder
ME Ps</w>
sub mitted</w>
er zeu
er lau
betro ffen</w>
be ar</w>
re du
administra tion</w>
- Fraktion</w>
ch ance</w>
erst ör
absol ut</w>
re den</w>
Gegen teil</w>
organis ed</w>
la id</w>
lich ung</w>
A ss
sicher stellen</w>
N ah
E G
Ratspräsiden tschaft</w>
Pap er</w>
manu fac
Dritt ländern</w>
Doku ment</w>
ide as</w>
gratu lieren</w>
gewi cht</w>
führ ungen</w>
st ausch</w>
t ac
mehr ere</w>
techn ischen</w>
per f
pen al
Wil len</w>
Viel falt</w>
open ing</w>
attemp t</w>
am bi
erneu er
begr enz
sensi tive</w>
g la
her z
Ab kommens</w>
s ou
gen utzt</w>
net work</w>
B ro
nachhal tige</w>
appe ar</w>
char ac
Wh y</w>
Stra f
Lis te</w>
ko sten</w>
construc tive</w>
unter breit
kl eine</w>
ein verstanden</w>
T agung</w>
Maß nahme</w>
H auses</w>
k ungen</w>
erhö hen</w>
m ün
O sten</w>
Be fu
ic ally</w>
Partn er</w>
Fre m
mechan ism</w>
e ch
str en
deal t</w>
ver teidi
integr ated</w>
y a</w>
get ting</w>
de gre
K lar
La dies</w>
Bot schaft</w>
war ten</w>
p ap
se ek</w>
meth od</w>
auth or
2 1</w>
weit en</w>
o de</w>
T un
Kan di
Ein k
Sch we
vo c
O k
re gu
l am
Proced ure</w>
O s</w>
fail ure</w>
ver rin
frau d</w>
enorm ous</w>
y c
u ß
op h
Ver mitt
Sch lüs
j e</w>
stand ard</w>
r un
ah ead</w>
parlia ments</w>
S ou
olog ische</w>
fre u
es ischen</w>
Pe ti
Bo s
2 4</w>
verb unden</w>
bu re
rie ben</w>
konkre ten</w>
gen e
Empfeh lung</w>
posi tions</w>
ch em
Rom ania</w>
gi es</w>
en h
dy nam
ver wendet</w>
ge m</w>
it ation</w>
Er hö
A ktionen</w>
he al
ti ges</w>
erklär en</w>
agen cies</w>
fi z
auf en</w>
Itali en</w>
Grün de</w>
A ra
govern ance</w>
Itali an</w>
Bes or
t ary</w>
ein erseits</w>
correc t</w>
w at
K ing
wet tbewer
r ück
bei de</w>
ges eh
addres sed</w>
be zogen</w>
institu tion</w>
Über prüfung</w>
jün gsten</w>
n ennen</w>
j em
bu ch</w>
ut ter
oc cu
i k
beteili gt</w>
re ply</w>
. 00</w>
stab il
o d
put ting</w>
er ungen</w>
Heraus forderung</w>
impro vement</w>
immedi ately</w>
man aged</w>
bo ard</w>
inter ven
L am
Tra de</w>
an tra
tar gets</w>
S ach
9 8</w>
st es</w>
ü hen</w>
b illi
gemein sam
Stab ilitä
t ür
betra chtet</w>
Plen um</w>
e vent
de ep
hervor heben</w>
Verän derungen</w>
stimm t</w>
in t</w>
Feh ler</w>
mand ate</w>
5 00</w>
chan ged</w>
aus drücklich</w>
g ruppe</w>
Weit er
Hö he</w>
A S
g keiten</w>
oblig ations</w>
ö konom
P at
ter en</w>
li ge</w>
well -
contain s</w>
a kt</w>
wahr scheinlich</w>
i ra
simp le</w>
wan del</w>
te m</w>
pres sion</w>
mögli che</w>
größ te</w>
resol utions</w>
k n
un able</w>
Völ k
decisi on-
199 5</w>
stoff e</w>
ver ehrte</w>
statt finden</w>
ü ben</w>
ein geführt</w>
Vorsch lägen</w>
dis charge</w>
King dom</w>
un zu
n ation</w>
Ide e</w>
y n
e ten</w>
co l</w>
ö k
briti schen</w>
Völ ker</w>
H el
ur ance</w>
L ib
m är
He alth</w>
pe op
Agen cy</w>
ar ri
abgel eh
M il
g n</w>
posi tiven</w>
main ly</w>
ä ten</w>
n a
ge zogen</w>
ander erseits</w>
N ation
voll ständig</w>
co her
Krie g</w>
Amend ments</w>
pl ant</w>
Sub sidiar
ten en</w>
ha ft</w>
ne u</w>
ent sch
War um</w>
Produ ktion</w>
Mid dle</w>
h eren</w>
as h
B y</w>
cel on
Bar celon
um welt
fis h</w>
B en
Pri me</w>
t äu
We ge</w>
resp ek
Au di
r ying</w>
dra mati
aussch uß</w>
mitt l
pers ons</w>
ul tim
consul tation</w>
Fest legung</w>
J etzt</w>
Ent last
Oc tober</w>
se em</w>
bi a</w>
Erhö hung</w>
mer ely</w>
mu tual</w>
betre ffen</w>
K ommunik
vot es</w>
cho ice</w>
führ ten</w>
eli min
in ci
t em
sat lan
fü gen</w>
er ör
an geb
En g
ed oms</w>
alis ten</w>
vi ce</w>
schie de</w>
re ad</w>
au ßer</w>
T ab
glob alen</w>
Verhand lungs
eas y</w>
Ver träge</w>
n ä
lo g
recht lichen</w>
er griffen</w>
E ven</w>
ep ing</w>
deb ates</w>
Entwick lungen</w>
be haup
Turk ish</w>
Flücht lin
spä ter</w>
zu dem</w>
W unsch</w>
I st</w>
t old</w>
un sten</w>
rejec ted</w>
Span ien</w>
mechanis ms</w>
I h
W asser
S k
erfolgre ich</w>
entr e</w>
- up</w>
P ubli
Ch amber</w>
An sch
p an
Ap plause</w>
An forderungen</w>
trä gt</w>
politi sch</w>
geschi eht</w>
es tim
com pla
zusätz liche</w>
M ol
lea ders</w>
K riti
fe ar</w>
en jo
persön lich</w>
Rechn ung
Vorsch lags</w>
De fin
d ele
Fäl le</w>
Drit tens</w>
comple x</w>
Re fer
ed on
tz dem</w>
grund sätz
g ruppen</w>
be ziehung</w>
9 0</w>
di gt</w>
regel n</w>
lo st</w>
Konzep t</w>
D aten
str ö
pay ments</w>
fun c
exerc ise</w>
thous ands</w>
p ien</w>
ge gangen</w>
te es</w>
a war
Stand ards</w>
stru ktur
on d
W al
substan tial</w>
SM Es</w>
N utzen</w>
traffi cking</w>
continu ing</w>
K rä
wor ked</w>
rah men</w>
im possible</w>
Ge währ
ausreich end</w>
heb ung</w>
Politi ken</w>
Fern er</w>
Ber ücksichti
Ok tober</w>
Garan ti
Aus bildung</w>
y er</w>
Sit z
it alien
p ed</w>
disast er</w>
fig ures</w>
Syst ems</w>
Re alität</w>
wichti ges</w>
M and
M u
bür ger
ter e</w>
as se</w>
flexib le</w>
wach sen
seit ens</w>
resol ve</w>
Strate gy</w>
so ver
Diskus sionen</w>
Le g
Ho ffnung</w>
gen ü
speak ers</w>
k aum</w>
ad ver
un kten</w>
qu e</w>
pl ying</w>
ab sichti
M any</w>
In halt</w>
F inn
f eld</w>
vol un
abgeleh nt</w>
re ck
o ffer
W ert</w>
Ein ige</w>
nat ur
ge geben
strate gie</w>
Ein druck</w>
medi c
Aus führungen</w>
sub sidiar
möglich keiten</w>
Russi an</w>
Ho ch
Kon ta
technologi es</w>
Ver brechen</w>
guarante es</w>
An liegen</w>
subsidiar ity</w>
no on</w>
Tran sport</w>
vor geseh
An zahl</w>
zweifel los</w>
zufrie den</w>
ri ge</w>
ander es</w>
zeu ge</w>
renew able</w>
1 6
om en
ch ild</w>
K rimin
sec ure</w>
besser en</w>
bil den</w>
n un
leg ungen</w>
indepen dence</w>
9 7</w>
inten tion</w>
S om
A m</w>
Pro t
evi dence</w>
ad t</w>
so for
ent wurf</w>
Vor teile</w>
li n</w>
geeig ne
be zug</w>
inclu des</w>
Christi an</w>
ung sh
b ab
ate ful</w>
form u
lin ked</w>
ließ en</w>
Rech nung</w>
Bes onder
degre e</w>
PP E-
E S
ö pf
erfol gen</w>
peop les</w>
l ate</w>
2 3</w>
Jah res
B ra
2 2</w>
tot ally</w>
el ement</w>
Wah l</w>
Justi z</w>
sel ben</w>
N ord
Über zeugung</w>
val uation</w>
hoh e</w>
as ks</w>
Berücksichti gung</w>
Euro pol</w>
in come</w>
Gel d
bring ing</w>
Klima wandel</w>
wis hes</w>
bereit et</w>
H ause</w>
0 0
zu legen</w>
s ehe</w>
offi cial</w>
l us
Ver stän
F ä
con ven
benö tigen</w>
tnis se</w>
sch ung</w>
member ship</w>
hän gt</w>
har m
gei zi
inter ess
gen des</w>
c e
event u
at titude</w>
li k
R ent
reason able</w>
des ire</w>
201 1</w>
p ub
fin ance</w>
traffi c</w>
behör den</w>
er ous</w>
conci liation</w>
repe at</w>
dan ger</w>
L A
p unkte</w>
at z
angem essen</w>
Unabhängi gkeit</w>
Medi en</w>
p al
F r
unterschied lichen</w>
Al tern
tür k
ge halten</w>
Jap an</w>
bur den</w>
bure auc
appli c
allgem eine</w>
qu anti
el ection</w>
Ta gen</w>
ko ordin
gr enzen</w>
Eink lang</w>
d ische</w>
bes or
Bemerk ungen</w>
verabschie det</w>
K MU</w>
pres er
co -
ehr geizi
E isen
exten d</w>
gewis se</w>
Al le</w>
A K
Jahr hunder
P flicht</w>
ak tiv</w>
promo tion</w>
gr ateful</w>
enn t</w>
con tribut
wor ks</w>
tre aty</w>
kom pli
H ä
situ ations</w>
mu tz
recommend ation</w>
den noch</w>
Afri ka</w>
pl en
Sin n</w>
g res
employ ed</w>
Frem den
sol cher</w>
D on
Kin dern</w>
control s</w>
wes halb</w>
schwieri gen</w>
op posed</w>
aff airs</w>
Kin der
ec tive</w>
Arbeitsplätz en</w>
vor legen</w>
Kon sen
J a</w>
expres sion</w>
au shal
territ ory</w>
weiter er</w>
we ak
Beisp iel
A gri
pub lis
bek ann
yp rus</w>
ern st</w>
C yprus</w>
D ann</w>
cons istent</w>
actu al</w>
Ver letz
sup ports</w>
T ri
Verbrau ch
o ffici
g yp
eh em
organis ationen</w>
in stance</w>
aus gesetzt</w>
Fä hig
S eit</w>
o ffice</w>
sab kommen</w>
dic t
econom ies</w>
Voraus setzungen</w>
An spruch</w>
dis tribu
fail ed</w>
L ast
Ein beziehung</w>
ob vious</w>
erfolgre ich
exp lan
viel mehr</w>
h or
decision- making</w>
sch w
famili es</w>
an wes
Stru c
st ac
Thir dly</w>
inten d</w>
si gn</w>
for th
be zieht</w>
umfassen de</w>
t t
j ahr</w>
sti e
Freih eiten</w>
high light</w>
emplo ye
Ber at
so und</w>
sequ ently</w>
bekämpf en</w>
Rech ts</w>
invol ving</w>
invol vement</w>
fac ed</w>
su cht</w>
n ieder
industri e</w>
Ob wohl</w>
o .</w>
Rechts grundlage</w>
Mon ate</w>
An ti
No s</w>
Gesam t
fre und
Priv at
Eisen bah
politi ci
rä f
j ur
Struc tural</w>
substan ces</w>
judi cial</w>
si des</w>
Kriti k</w>
1 8
G ra
län e</w>
s eh
origin al</w>
Re gu
fre i</w>
sch we
gesund heit</w>
ent gegen
Pak istan</w>
mo di
Ihr en</w>
Hinter grund</w>
ta bel</w>
dra f
aus führ
u ten</w>
in a</w>
ru n</w>
exis tence</w>
ob stac
recogn ised</w>
Ques tion</w>
aus sprechen</w>
bel an
tic s</w>
betra chten</w>
in e
immedi ate</w>
Z ei
be hand
commit tees</w>
reagi eren</w>
aufge fordert</w>
Mi o.</w>
Bi o
re le
Region al
k ts</w>
Ver bot</w>
Tre ffen</w>
mit tag</w>
Regier ung
be absichti
di g</w>
ad ly</w>
E L</w>
Zy per
gan gs</w>
see king</w>
be handeln</w>
Verf assungs
tal ks</w>
Ab sicht</w>
sp ie
con soli
N ew</w>
tru ly</w>
conc entr
bin ding</w>
F unds</w>
exp ected</w>
G eh
t ten</w>
l auf</w>
verur sa
I N
ub a</w>
p e</w>
a stri
happen ing</w>
r uss
akzep tabel</w>
Kon sequ
t led</w>
Zu dem</w>
Schluss folgerungen</w>
au er</w>
adv ant
Ba sis</w>
Um fang</w>
Einwander ung</w>
weap ons</w>
great est</w>
Anp assung</w>
Minder heiten</w>
ameri kanischen</w>
adop ting</w>
plen ary</w>
Entschei dungs
E ffizi
Acc ord
bek räf
z a</w>
c ra
da cht</w>
besonder en</w>
Hin der
Flexib ilität</w>
sp ent</w>
voll kommen</w>
techn ische</w>
j etz
Entwicklungs ländern</w>
ic s</w>
ch e
Mon etary</w>
mon th</w>
appe al</w>
resol ved</w>
k bar</w>
gran ted</w>
tour ism</w>
vol len</w>
kein erlei</w>
ge fördert</w>
er gän
k a
under min
anerk annt</w>
P act</w>
Mitglie dern</w>
prot ecting</w>
go al</w>
men s</w>
lä ss
ehem ali
dru gs</w>
ba d</w>
C 5-0
rit t
n ations</w>
el li
Bemerk ung</w>
s -
reich ung</w>
se a</w>
Publi c</w>
Balk ans</w>
wün sch
rä u
appro val</w>
E G</w>
3 5</w>
grenz ung</w>
wi d
letz t</w>
Zi ffer</w>
Politi k
O ff
ass ure</w>
zug unsten</w>
ser ve</w>
bestä tigt</w>
proc eed
fäl len</w>
N ich
tic ally</w>
ein ander
Pol and</w>
Gericht shof</w>
m igration</w>
inter nationaler</w>
ar ms</w>
Er d
Afri can</w>
lik ely</w>
leist ung</w>
inter esting</w>
Besor gnis</w>
erwä hn
ein ig
kulturel len</w>
Swe den</w>
saf e</w>
kom ple
em bly</w>
ne tz
trav el</w>
subsi dies</w>
pen sion</w>
o ffizi
Prü fung</w>
ul i</w>
k il
Er wä
sp rü
Be ob
auff or
Ju ly</w>
samm lung</w>
dr än
Unter schiede</w>
min orities</w>
grundle genden</w>
follow ed</w>
meet ings</w>
kun fts
stell ungen</w>
p ul
Ereig nisse</w>
gest alten</w>
zügi gkeit</w>
wesent liche</w>
gnis sen</w>
Ma astri
Hoh en</w>
fre ie</w>
Proble ms</w>
w .</w>
spra chen</w>
mo bil
Kolleg in</w>
Besch luss</w>
ver lei
mit einander</w>
com par
compe tence</w>
star ting</w>
All gem
spiel t</w>
Zwec k</w>
gew ö
tur ing</w>
ti ver</w>
Vor aussch
suffer ing</w>
def end</w>
steu er
glob alisation</w>
Dien ste</w>
se ts</w>
desig ned</w>
Kon sul
credi t</w>
ar d
No t</w>
us w.</w>
conduc t</w>
näch ste</w>
dise ase</w>
geleit et</w>
In s
expla in</w>
Kl ein
Re de
L ie
um zusetzen</w>
Kontrol l
Besch lüsse</w>
wettbewer bs
äuß ern</w>
un eingeschrän
l ass</w>
bei zu
UN -
ap poin
R edu
re ject</w>
Ak te
ffent lich</w>
Stell ung</w>
ne l</w>
g rie
flo or</w>
care fully</w>
at tra
Ver sch
G ruppen</w>
an nehmen</w>
region ale</w>
Rumän ien</w>
Währ end</w>
intel li
ex port</w>
Dienstleist ungs
sha red</w>
pollu tion</w>
dar aus</w>
St re
lei den</w>
fähi g</w>
f are</w>
e valuation</w>
zahl reichen</w>
säm tliche</w>
erforder t</w>
zu ständigen</w>
Viel e</w>
Verstän dnis</w>
E mp
fri ed
si ehe</w>
Wachst um
H -0
ung sin
ro und</w>
h ilfe</w>
belan gt</w>
P lan
D en</w>
propos ing</w>
st res
critic ism</w>
t ack
J uli</w>
an ten</w>
Mär kte</w>
kti ken</w>
größ eren</w>
beträ cht
C ha
bedau er
Pol en</w>
tu ri
Dro gen
Au gen
tack le</w>
mo bility</w>
zu lassen</w>
Swe dish</w>
a chtung</w>
wil l
contin ues</w>
behör de</w>
wach st
sp ace</w>
lit y</w>
bekämpf ung</w>
ab geschlossen</w>
tiv ität</w>
verstär kt</w>
f ly</w>
Lissab on-
akzep tiert</w>
e chte</w>
LA F</w>
richti gen</w>
comp ly</w>
lan gt</w>
str on
pop ul
isti sche</w>
detail ed</w>
Er war
exp ec
E astern</w>
organ iz
bilater al</w>
tax ation</w>
min ority</w>
a ver
Ver rin
Re form
invol ve</w>
Des wegen</w>
2 6</w>
f igh
Audi tors</w>
äuß ert</w>
vi er
französ ischen</w>
Kom peten
ger en</w>
gelan gen</w>
S im
hear t</w>
d or
a gen</w>
th ereby</w>
natur ally</w>
an belangt</w>
zuneh men
re form
A R
gestell ten</w>
Ges etz</w>
gro unds</w>
di g
Or d
eini g</w>
acht eili
Reak tion</w>
ju st
jewei ligen</w>
Voraus setzung</w>
ser ies</w>
elec tri
harmon isation</w>
low er</w>
krä fte</w>
demo kraten</w>
comm unities</w>
är m
Vorbereit ung</w>
c at
Gesetz e</w>
Entwicklungs länder</w>
win den</w>
tä tig</w>
minis ters</w>
ge arbeitet</w>
E A
fe der
Technologi en</w>
20 0</w>
Vor gehen</w>
dela y</w>
comp liance</w>
innov ative</w>
B as
system ati
In v
ri es</w>
to b
de te</w>
certain ty</w>
pres ence</w>
P hase</w>
rech ts</w>
wi der</w>
Bud gets</w>
la w
W hile</w>
L auf
sup ple
ro r</w>
re ib
dou b
c en
Pre is
unabhängi g</w>
perman ent</w>
Arbeits markt</w>
man gel
justi fied</w>
Verrin gerung</w>
Kontrol len</w>
einheit lichen</w>
Einf luss</w>
tran satlan
th or
nachhal tigen</w>
Außen politik</w>
qu ote</w>
Pre is</w>
Nor men</w>
Industri e
si vely</w>
ho ch</w>
di vi
zur ück</w>
üs se</w>
kein es
Un ter</w>
9 6</w>
ge ber</w>
G az
wer k
unterschied liche</w>
t i</w>
fu hr
ad a</w>
Mis s
B lick</w>
zu letzt</w>
angemessen e</w>
Barcelon a</w>
der ten</w>
Verteidi gungs
es sive</w>
bar er</w>
dien ste</w>
empha sis</w>
E ur
Beh in
t wo
plan ning</w>
Res ol
ver lor
Vereinbar ungen</w>
any one</w>
Ener gy</w>
por ary</w>
ff s</w>
Un gleich
rit ann
An teil</w>
füh l</w>
Fun ktion
ü b
lim its</w>
bedeu ten</w>
Be tru
Überein stimmung</w>
auf zunehmen</w>
Nor th</w>
consu mption</w>
betreff enden</w>
ordin ary</w>
Geor gi
ga in</w>
aktu ellen</w>
K ü
vo ice</w>
Vor sitz</w>
Effizi enz</w>
de fic
acc o</w>
trä gen</w>
Ju gen
R and
gemein schaftlichen</w>
defin ed</w>
cla im
materi al</w>
lu ß
tar get</w>
st öß
ge ändert</w>
B 5-0
L at
wor th</w>
deta il</w>
credi bility</w>
caus es</w>
c ting</w>
b ritann
s mo
V ic
wa it</w>
P unkten</w>
M ac
vor her
k atastrop
ari ly</w>
L ehr
es tic</w>
W aff
Groß britann
Entlast ung</w>
ven tionen</w>
op tion</w>
bar ri
Defin ition</w>
zw ec
b y
Bil dungs
sec re
b ir
R ati
Z oll
impro vements</w>
ütz t</w>
absol ute</w>
Ar z
begrüß t</w>
Wi th
wir kt</w>
ong st</w>
am ongst</w>
Gre ek</w>
Volks gesundheit</w>
appe ars</w>
ver wal
vehic les</w>
spe ed</w>
läu ft</w>
experi en
aus schließlich</w>
Se a</w>
w and</w>
pr o</w>
sign al</w>
nach dem</w>
ex ec
ef s</w>
AK P-
dest ro
sup pli
entr y</w>
nied ri
f ro
o therwise</w>
Strate gien</w>
b ien</w>
or al</w>
fi k
stra fe</w>
Konsen s</w>
F rü
an genommen
el te</w>
ob serv
C ze
los s</w>
mis s
lis ten</w>
fern er</w>
Wes tern</w>
Voraussch au</w>
M oment</w>
ten dlich</w>
Analy se</w>
P ot
P i
Leg isl
G ü
Kommission sprä
yo to</w>
K yoto</w>
und es
max imum</w>
f assung</w>
campaig n</w>
ber eiten</w>
H al
A 4-0
s ource</w>
religi ous</w>
h und
P ati
citi es</w>
entscheiden d</w>
arran gements</w>
E hr
er mu
distribu tion</w>
wirk lichen</w>
nor mal</w>
komm e</w>
aff ect</w>
funda ment
employe es</w>
Kul tur
declar ation</w>
h ours</w>
F er
uni vers
terror ist</w>
is tic</w>
aus gesprochen</w>
Zah len</w>
sch lim
particip ate</w>
or en</w>
weit e</w>
dau er
Con su
reit er
M eines</w>
star ke</w>
sat zes</w>
Emis sionen</w>
ö der
tig keiten</w>
be ob
S V</w>
com bin
charac ter
dar unter</w>
wichti gste</w>
tu t</w>
f elt</w>
Frei zügigkeit</w>
zi elt</w>
af ter
struk turi
betreff end</w>
sho fs</w>
lau tet</w>
de ad
bud s
oper ating</w>
monit or</w>
t al</w>
be ein
z in
schätz ung</w>
fic ations</w>
Haushaltsp lan</w>
Gleich stellung</w>
Agri culture</w>
obli gation</w>
ga ve</w>
Stat us</w>
On ly</w>
N icht</w>
N ein</w>
nei ther</w>
i ly</w>
einger eicht</w>
M ein</w>
Inter nationalen</w>
außerorden tlich</w>
Su ch</w>
ho od</w>
tradi tion
star ted</w>
leist ungen</w>
high -
mul tin
p .m.</w>
Famili en</w>
Schlüs sel
ra il</w>
pla yed</w>
gra du
dom estic</w>
F i
initi al</w>
Per spek
dien st
ma g</w>
ate ver</w>
represent ative</w>
re k
k einer</w>
occu p
langu ages</w>
Be am
v a</w>
an ische</w>
F an
nun mehr</w>
am m
k en
in form</w>
imm igrants</w>
Schwe den</w>
compens ation</w>
M ad
Gleich gewicht</w>
ob tain</w>
ex tra
Vi elleicht</w>
vorzu legen</w>
ne ben</w>
mo ving</w>
Risi ken</w>
m illi
Th ose</w>
sinn voll</w>
ger ing
a .</w>
grundle gende</w>
gener ally</w>
en ess</w>
rap id</w>
lo sen</w>
Y et</w>
7 -
determin ation</w>
sch efs</w>
W ür
easi er</w>
vorgeschla gene</w>
ganis ation</w>
ra sch</w>
steh e</w>
bes ei
Mit arbeit
Red ner</w>
R in
at ta
B SE</w>
z on
e arch</w>
Res earch</w>
Ele mente</w>
Binnenmark tes</w>
bem üh
übri gens</w>
en ab
2 8</w>
resp ected</w>
sto od</w>
de lighted</w>
W äh
mari time</w>
Sch luss</w>
t est</w>
kti ven</w>
A tom
constitu tional</w>
S at
Char ak
fac tors</w>
s al
itä ts
ber s</w>
re icht</w>
gel assen</w>
fre edoms</w>
verur teilt</w>
fac tor</w>
breit ung</w>
T O-
Entwick l
staat liche</w>
politi cs</w>
go als</w>
Al so</w>
9 9</w>
di gn
z ation</w>
contribu tions</w>
speak er</w>
politici ans</w>
encoura ging</w>
tob acco</w>
sen sible</w>
O m
ungs verfahren</w>
o st
ges p
att acks</w>
wirtschaft licher</w>
spre che</w>
ei gen
a ci
Nah en</w>
sib ly</w>
b ol
nö tig</w>
wiederhol en</w>
notwendi ge</w>
att le</w>
ab stimmen</w>
regul atory</w>
ari es</w>
AC P</w>
G ali
lab elling</w>
Bulgari a</w>
sat z
pal ästinens
im posed</w>
figh ting</w>
Zuständi gkeit</w>
Re ligi
wa chen</w>
pay ment</w>
be zo
US -
wa iting</w>
vor rangi
T it
Glau bwürdi
sk i</w>
fa ßt</w>
F rom</w>
Aktionsp lan</w>
nat ür
loy ment</w>
Regi me</w>
t ou
Gesch le
vor anzu
er ter</w>
be we
Uns er</w>
Commission ers</w>
ver sion</w>
funktion iert</w>
Politi ker</w>
E N
wh il
whil st</w>
contin ent</w>
fa il</w>
men ts
k i</w>
ent sprechen</w>
Vi zep
Untersuch ung</w>
W er</w>
O S
M us
Institu tion</w>
m ier
t ment</w>
k rie
l ation</w>
Bes u
interes ted</w>
ein bezogen</w>
grie ch
Sig nal</w>
vi r
k ennen</w>
cent ury</w>
appropri ations</w>
v ul
siden ten</w>
anwes end</w>
Umstän den</w>
neu es</w>
niem and</w>
ver langen</w>
profession al</w>
ver hand
on eth
oneth eless</w>
ch ter
ap par
Verein fach
zusammen arbeiten</w>
a cht</w>
propos es</w>
Mob ilität</w>
7 5</w>
wel fare</w>
Verhäl tnis</w>
Famili e</w>
zurück zu
facilit ate</w>
C roati
wh ere
fre qu
Vizep rä
CO 2</w>
fron t</w>
er fahren</w>
continu ed</w>
separ ate</w>
equ ally</w>
b ele
Chr ist
en for
citiz en</w>
lok alen</w>
realis tic</w>
pro to
fan gen</w>
chti gkeit</w>
wer k</w>
in ts</w>
F ron
ell s</w>
Soci alist</w>
ü pf
unter streichen</w>
sp ending</w>
cap able</w>
geb aut</w>
fol genden</w>
Ver such</w>
Sek toren</w>
Befu gnisse</w>
m ot
exper ts</w>
3 0
herz lich</w>
even ing</w>
I S</w>
demo gra
zei chn
ges ell
co t
Ziel en</w>
Be tra
buds man</w>
be u
M ilit
R i
f lu
differ ence</w>
An merk
begr ün
l le</w>
fi l</w>
einge halten</w>
cri mes</w>
Über legungen</w>
ü nen</w>
reco very</w>
p on
nach drücklich</w>
mo dern</w>
confli cts</w>
E st
gewö hn
endor se</w>
zw ungen</w>
t un
staat lichkeit</w>
fa chen</w>
de bt</w>
func tioning</w>
Verbesser ungen</w>
Bestand teil</w>
Be weis</w>
sor g
län ger</w>
du mp
bemüh t</w>
a lities</w>
Zei chen</w>
Eben so</w>
ur en</w>
p il
ben s</w>
teil weise</w>
ben e
D ut
s eines</w>
reach ing</w>
g mati
s tim
mindes tens</w>
Erfahr ung</w>
negoti ating</w>
en des</w>
opin ions</w>
gen annt</w>
ens wert</w>
tra ding</w>
be wäl
Wirk lichkeit</w>
u fen</w>
require ment</w>
e valu
Glaubwürdi gkeit</w>
vi ew
y ers</w>
effec tiveness</w>
trans fer</w>
Stra s
Mitglied s
fol gende</w>
St o
forth coming</w>
ausgezeichne ten</w>
ti erung</w>
dem and
wirk sam</w>
l a</w>
Le gal</w>
ill enn
mehr eren</w>
em pf
St ellen</w>
Ö st
sol ve</w>
4 5</w>
tradi tional</w>
refer endum</w>
Absch affung</w>
u si
tran spor
t asks</w>
spar tei</w>
n -
d opp
cht fer
Sor gen</w>
restri ctions</w>
lin k</w>
kürz lich</w>
Cze ch</w>
Be we
erfol gt</w>
ver lieren</w>
umfassen den</w>
an den</w>
ther lands</w>
quali fizi
Stras bourg</w>
Ü bri
mar y</w>
gelten den</w>
sequ ent</w>
po wer
Nieder lan
Berichterstat ters</w>
im pose</w>
guarante ed</w>
genann te</w>
g ä
Ne therlands</w>
inclu sion</w>
er geben</w>
Ver gleich</w>
proble mati
ethn ic</w>
Antwor ten</w>
ver sorgung</w>
erheb liche</w>
be ha
pre fer
L ab
sex ual</w>
person ally</w>
ra il
per c
con tradi
refle ct</w>
Verteidi gung</w>
Vor haben</w>
hel ping</w>
Zivil gesellschaft</w>
stie g</w>
groß es</w>
G lück
C openhagen</w>
can c
zeh n
writ ten</w>
Bed ro
Auf bau</w>
Organ e</w>
ed ly</w>
prot ected</w>
sch lägt</w>
Erzeu gnisse</w>
Bed ar
B ec
Vic e-
For men</w>
men ding</w>
An rei
wil ling</w>
N iz
An griff</w>
kon stru
em bar
fi f
vul ner
ph y
blo ck
Über gangs
ph ase</w>
Portu gu
verstär ken</w>
su m</w>
le hnung</w>
verkehr s</w>
Ti ere</w>
v on
fri end
all er
entwick lung</w>
dra wing</w>
wirk sam
stell er</w>
3 1</w>
I C
verfü gt</w>
c au
Gemein same</w>
per form
ich ten</w>
exam ine</w>
Zentral bank</w>
num erous</w>
exis ts</w>
er scheint</w>
illeg alen</w>
ess ing</w>
dies el
bem ühen</w>
legitim ate</w>
den e</w>
ben e</w>
Großbritann ien</w>
depen dent</w>
invest ments</w>
kämpf en</w>
V an</w>
Sch u
inform iert</w>
alis tischen</w>
ru fen</w>
entscheiden der</w>
ent stehen</w>
dom in
k am</w>
un ru
Tre aties</w>
Prinzi pien</w>
u de</w>
i k</w>
allow ing</w>
Stra ßen
le bens
gla d</w>
w om
tre ated</w>
ar ding</w>
ver sichern</w>
fir m</w>
Parla ments
i de</w>
Krimin alität</w>
wel chen</w>
urop ä
trei ben</w>
pur poses</w>
ma ß</w>
dise ases</w>
ex emp
St ability</w>
ör per
N ice</w>
D P</w>
volun tary</w>
st ec
oper ations</w>
Ber lin</w>
zw an
Accord ing</w>
m as
L ast</w>
Portugu ese</w>
fo ot
einzi gen</w>
ir y</w>
go t</w>
ver kehrs
Gen ehm
Austri a</w>
klar en</w>
O M</w>
K omm
2 9</w>
ban ks</w>
Mark et</w>
Bos n
ch air
Krank heiten</w>
ke eping</w>
herr scht</w>
Gesprä che</w>
Ein richtungen</w>
weiter es</w>
trä chti
ch mal</w>
be ziehungen</w>
g ünsti
g one</w>
bestimm t</w>
spezif ischen</w>
mon o
Katastrop he</w>
gel y</w>
bes te</w>
2 -
Bal tic</w>
ver langt</w>
geh ens
schutz es</w>
re st
hervor gehoben</w>
E I
vorlie gende</w>
Gedan ken</w>
let ter</w>
Tra g
offici als</w>
disast ers</w>
ge prüft</w>
cust oms</w>
associ ated</w>
condi tion</w>
B lo
allgem ein</w>
verantwor tungs
occa sions</w>
S i
en de
an statt</w>
sei en</w>
comp ati
o ts</w>
b l
lear n</w>
be findet</w>
6 -0
pla ces</w>
Hand eln</w>
äum t</w>
demonstr ated</w>
Wei ß
ver dient</w>
er öff
an schließen</w>
vis a</w>
peac eful</w>
nach zu
kno ws</w>
A ction</w>
W affen</w>
tra ge
vis it</w>
wor se</w>
recht liche</w>
Regierung schefs</w>
Om budsman</w>
verlor en</w>
dis krimin
Män nern</w>
oper ators</w>
Parla mente</w>
Me er
Bürger beauftra
ri chtet</w>
re marks</w>
Risi ko</w>
techn ological</w>
er läu
si l
bed ro
ach es</w>
m om
i ans</w>
nä her</w>
A no
andel s</w>
ehr ten</w>
tac kl
mari ly</w>
Konfli kt</w>
Finan cial</w>
vol ler</w>
comp lic
Fra mework</w>
Erwar tungen</w>
Arbeitsp lat
An n
constitu tion</w>
Luxem bourg</w>
I denti
safegu ard</w>
is ieren</w>
Arz nei
k ro
ell ed</w>
be wegen</w>
Ano ther</w>
zah lt</w>
di en</w>
profi tieren</w>
gent ly</w>
d ritten</w>
wel cher</w>
hol ding</w>
demonstr ate</w>
Umwelt fragen</w>
wen igen</w>
ei l
tri ed</w>
qu alit
bestimm ter</w>
milli ons</w>
elek tron
Z ur</w>
si erung</w>
set t
m ann</w>
W omen</w>
we ch
jetz igen</w>
h ous
Mit entschei
Inv est
w est
appro ve</w>
geb ühr
c ou
allo cated</w>
gest at
Wel che</w>
ne ver
ge äußert</w>
ig u
i al</w>
p assen</w>
ge is
frei wil
feh lt</w>
program ms</w>
att ack</w>
poten zi
ch in
c ke</w>
ts äch
R ec
Ord nung</w>
Last ly</w>
A T</w>
bene fi
verlei hen</w>
p us
contain ed</w>
op pos
institution elle</w>
Z eiten</w>
C AP</w>
s em
lei cht</w>
Flüchtlin ge</w>
lin ed</w>
enti tled</w>
den kt</w>
Todes strafe</w>
beteili gen</w>
ori enti
letz tendlich</w>
gen ehm
man age</w>
Maastri cht</w>
EU- Mitgliedstaaten</w>
fal sch</w>
Sy ri
Mi ß
Funda mental</w>
pass ed</w>
entscheiden de</w>
passen gers</w>
amoun ts</w>
Niz za</w>
en han
acht ei
über nommen</w>
y es</w>
vis ed</w>
i ed</w>
g an</w>
kontrol le</w>
individu als</w>
pri marily</w>
durch zuführen</w>
bab we</w>
Vereinfach ung</w>
fin e</w>
tor al</w>
stri ct</w>
humanit äre</w>
gri ffe</w>
Ab lehnung</w>
re ment</w>
cor ruption</w>
conclu ded</w>
re li
exam ples</w>
chan ging</w>
ou b
elec tron
k ü
ab gestimmt</w>
be trie
I F
Ab end</w>
über ein</w>
ultim ately</w>
kl ein
finanzi ert</w>
vol ution</w>
Rechts staatlichkeit</w>
z erstör
l ut
Pra ktiken</w>
lis ten
en zi
sugges t</w>
promis es</w>
w ann</w>
Syst eme</w>
hän gen</w>
spar tn
re alise</w>
c ar</w>
Wes ent
ho ffentlich</w>
Waff en
haup tsäch
kra ft</w>
dest ru
autom ati
An fragen</w>
pat h</w>
dustri e</w>
Fis cher</w>
H ig
ordn ungen</w>
dan kbar</w>
vor ange
sp anischen</w>
201 2</w>
plan ned</w>
Sicherheits politik</w>
sel n</w>
b ase</w>
sub stance</w>
NG Os</w>
Mark tes</w>
K am
B rit
rati fizi
bür ger</w>
Straß burg</w>
prakti sch</w>
Z wis
Konsequ enzen</w>
H ier
lab or
t ab
är kt</w>
vorgeseh enen</w>
exten ded</w>
Schi ff
tur ned</w>
dign ity</w>
over come</w>
Mod ell</w>
wirk ung</w>
ri ch</w>
Th e
sch eme</w>
ä ts
ment ari
no ted</w>
civi li
O ber
Män ner</w>
sorg fäl
inform ieren</w>
D A</w>
si ze</w>
invol ves</w>
far ming</w>
ator en</w>
s lo
auffor dern</w>
Wor t
Vertra gs
k la
g as
Des pite</w>
Berich ten</w>
tru th</w>
re vision</w>
awar eness</w>
ß e</w>
ver öffent
lau t</w>
represent ed</w>
aver age</w>
t ät</w>
B ru
mensch lichen</w>
f ach</w>
Wirtschafts wachst
Mittel punkt</w>
verb un
im ports</w>
hand s</w>
Kohäsions politik</w>
Chin ese</w>
proz esses</w>
emer gency</w>
em m
CO M</w>
ei gn
in o</w>
g utes</w>
m ur
A sh
tax es</w>
erheb lich</w>
Indi a</w>
k ers</w>
der ungs
spezi ell</w>
Ih rem</w>
b ig
il lu
and a</w>
wo durch</w>
aus gehen</w>
never theless</w>
eu ro
do w</w>
vergen ce</w>
L eute</w>
Eisenbah n
M ul
Febru ary</w>
D E-Fraktion</w>
ur ch</w>
Plat z</w>
Fis her
vor genommen</w>
gew innen</w>
aus ende</w>
struktur en</w>
con nec
form ul
t sch
proc eed</w>
Gi ven</w>
wor fen</w>
ful fil
C ol
un less</w>
fest zulegen</w>
viol ations</w>
o k
Slo v
fir mly</w>
ass ungen</w>
nah m
Wider spruch</w>
Per haps</w>
M ut</w>
x im
I P</w>
sätz en</w>
ri ft</w>
führ te</w>
erwar tet</w>
L etz
verteidi gen</w>
Produ ktions
Ni veau</w>
L ond
fan gre
de ckt</w>
ra c
ch ts</w>
M au
we g
ativ ely</w>
Pak et</w>
some what</w>
ab gesch
penal ty</w>
d ates</w>
co operate</w>
st able</w>
ri gi
confir m</w>
wh atever</w>
decisi ve</w>
z en
k es
fu el</w>
ver se</w>
regel mäß
lossen heit</w>
son st</w>
ins urance</w>
den s</w>
zäh len</w>
niem als</w>
ter ing</w>
Vice- President</w>
Proz esses</w>
D rin
D em</w>
heu tige</w>
Ex per
As sozi
9 5</w>
Ö l
r ul
j ah
G ere
At lan
Arbeit en</w>
über all</w>
stre ben</w>
ab sur
l ös
2 5
H ere</w>
B undes
garan tieren</w>
tem porary</w>
zu gleich</w>
letz tlich</w>
il isierung</w>
reques ted</w>
berei che</w>
au ton
For mu
wen ige</w>
un fair</w>
beschäf tigen</w>
J oh
Febru ar</w>
Be griff</w>
Croati a</w>
ad voc
um fangre
K y
Hig h</w>
vulner able</w>
sozi aler</w>
shor t
qu alität</w>
im pression</w>
i j
Mal ta</w>
E ff
mas sive</w>
happ ens</w>
An wen
unzu reich
prec e
obstac les</w>
Zusammen halt</w>
K roati
ur teilung</w>
statisti cs</w>
Tro tz</w>
und oub
Dialo gs</w>
M ann</w>
consider ing</w>
De fiz
bru ch</w>
Ass embly</w>
ph en
off ers</w>
ernsthaf t</w>
St äd
Al ger
sol ches</w>
prosp er
ap pointed</w>
exclu sion</w>
einheit liche</w>
Lond on</w>
ar a</w>
Verbraucher schutz</w>
Gewähr leistung</w>
colle ctive</w>
Pro f
ein stimm
i ens</w>
Her zen</w>
inten sive</w>
ple ase</w>
Y u
Kre di
effizi enz</w>
zeu gen</w>
P atten</w>
Uni ons
E P
s ü
pro ve</w>
ge zwungen</w>
Struktur en</w>
gener ation</w>
Nat ur</w>
An hör
lat ter</w>
Balk an</w>
fisher men</w>
Wel th
wol lten</w>
stri c
reser v
mer ken</w>
lä ßt</w>
genau so</w>
bei getragen</w>
St off
M at
Redu zierung</w>
l ern</w>
ol z</w>
Ko rea</w>
wirk same</w>
cl ause</w>
Bec ause</w>
prepar ing</w>
beschäf tigt</w>
Ser bia</w>
p ment</w>
an spru
agen cy</w>
spo ken</w>
man i
erre ich</w>
m üß
derar tige</w>
industri es</w>
D o</w>
fe el
cour t</w>
dam als</w>
ch ing</w>
Res pe
Dut ch</w>
produc tive</w>
Währungs union</w>
Inter governmental</w>
par t-
Fisher ies</w>
ha fte</w>
konkre t</w>
O hne</w>
An gaben</w>
sur pris
gewähr t</w>
quot as</w>
verfü g
be ten</w>
allow s</w>
Th en</w>
Tei len</w>
j ungen</w>
Dien st</w>
199 4</w>
tz ei
detail s</w>
einzu führen</w>
B on
star ken</w>
democ rati
Wohl stand</w>
and elt</w>
Dar um</w>
high est</w>
ange wand
vorsch läge</w>
quali fied</w>
erleich tern</w>
D ol
än den</w>
ha ften</w>
den falls</w>
ri d</w>
prog res
prep are</w>
beg onnen</w>
announ ced</w>
rel ates</w>
du ties</w>
t te</w>
p ass</w>
introduc ing</w>
gesch ützt</w>
ab use</w>
to p</w>
län dliche</w>
prevent ing</w>
hauptsäch lich</w>
entsch lossen</w>
accoun ts</w>
re chts
comp ared</w>
sicher ungs
at ure</w>
Zah lungs
Mo der
lat est</w>
be vor
el i</w>
co decision</w>
O LAF</w>
zweit ens</w>
proper ty</w>
ple as
ben den</w>
tel e
j enen</w>
Ge fahren</w>
wissen schaftlichen</w>
ursprün glichen</w>
ge -
er weit
ap plying</w>
h im
Vermitt lungs
Gegen satz</w>
verrin gern</w>
fi el
besor gt</w>
Hei mat
ü bt</w>
pil lar</w>
Tra di
sofor t</w>
pos al</w>
gebie t</w>
beru f
Plen ar
rä um
kor re
eng agi
coura ge</w>
Ent sch
Öst erreich</w>
occa sion</w>
Mitglied schaft</w>
ter ed</w>
stan de</w>
spezif ische</w>
sch afft</w>
läss lich</w>
expec tations</w>
exc essive</w>
erwä hnen</w>
af ri
tim et
min utes</w>
c tual</w>
Bulgari en</w>
ful fil</w>
I D
vor gelegten</w>
Ver b
ler nen</w>
oper ational</w>
c ard</w>
gestat tet</w>
en su
explo itation</w>
electron ic</w>
e chten</w>
vorsch lagen</w>
st ration</w>
spo ke</w>
min im
ger icht
Außen -</w>
ur gently</w>
re struc
appreci ate</w>
Re port</w>
Beru fs
ster reich
schwi er
mi d
en tz
verhand lungen</w>
si chts
p ak
undoub tedly</w>
lich em</w>
K ür
bud gets</w>
ag ue</w>
m ass</w>
- European</w>
sp unkt</w>
jäh rigen</w>
c ent</w>
Ver zö
x ed</w>
proc esses</w>
er leben</w>
ran g</w>
erhö ht</w>
brie f</w>
sto cks</w>
const antly</w>
behand lung</w>
b it</w>
Re is
proceed ings</w>
S af
fac ts</w>
S ie
fin ding</w>
briti sche</w>
besch le
Stu die</w>
ne w
es ti
O l
Drin glich
priv aten</w>
Sch wei
zi em
Gel der</w>
t au
determin ed</w>
en det</w>
ta k
sich erung</w>
lossen en</w>
Am ts
zi elen</w>
ser n</w>
mö gen</w>
Deb atten</w>
Beispiel e</w>
ger ufen</w>
Yu gosla
S port</w>
rä ger</w>
prosper ity</w>
über tragen</w>
defin e</w>
confir med</w>
unter zeichnet</w>
Consu mer</w>
Mand at</w>
rec ord</w>
kon fron
histor ic</w>
sk il
prec ise</w>
beha vi
al tet</w>
secon dly</w>
pursu e</w>
alle l</w>
ab and
Is lam
H am
won der</w>
gu ter</w>
ent fern
descri bed</w>
pa ar</w>
imp lic
fis cal</w>
3 00</w>
argu ments</w>
li en</w>
em pfeh
consoli d
M ir</w>
Infra struktur</w>
stron ger</w>
exten sion</w>
Gr ünen</w>
don es
Minister prä
I V</w>
e te</w>
we gs</w>
le ment</w>
f and</w>
ver fahrens</w>
pro jek
gran t</w>
M assen
deut schen</w>
H U</w>
Kris en
gewäh lt</w>
advant ages</w>
Handel s</w>
mä chti
Kon vent</w>
typ es</w>
te en</w>
resp ective</w>
inten ds</w>
ing -
fra gt</w>
d ank</w>
perf ec
cont act</w>
ackno wled
pro hi
europä isches</w>
adver ti
Asi a</w>
phen omen
d ritte</w>
Pre ise</w>
Ele ment</w>
tax pay
materi als</w>
gehens weise</w>
wel com
welcom ed</w>
unmittel bar</w>
sozi al
kan ische</w>
pe ti
i en
stu dies</w>
sto ffen</w>
Tran spor
vor aus
associ ation</w>
er zeit</w>
dump ing</w>
Wir kung</w>
Sec re
Fre ude</w>
h ori
ein zusetzen</w>
bro ad
bein hal
Charak ter</w>
is ra
clari fy</w>
Tre ib
An sichten</w>
isra el
Bud get</w>
Im m
abhängi g</w>
Beteili gten</w>
sp here</w>
fiel ds</w>
an gehö
bestä tigen</w>
best and</w>
too l</w>
Tab ak
Arbeitneh mern</w>
schn ell
moder nis
barri ers</w>
ati n</w>
Selb stverständlich</w>
Nor di
dan ach</w>
an gebracht</w>
Be für
under stood</w>
mittl eren</w>
k ept</w>
einge gangen</w>
S timm
Energi ever
ur s
fun ction</w>
bein gs</w>
Investi tions
rati fication</w>
j ourn
mittel t</w>
coordin ated</w>
al ar
Wahr heit</w>
om in
lin ks</w>
friend ly</w>
so eben</w>
b om
Metho de</w>
schi ed</w>
schließ t</w>
jähr lich</w>
he ad
form al</w>
dies bezüglich</w>
Ma ß</w>
strate gies</w>
Er forder
gh ts</w>
ac ting</w>
Kommissions mit
Famili en
un ited</w>
mutz ung</w>
humanit ären</w>
sover eign
politi sches</w>
is men</w>
f ein
en g</w>
antwor tet</w>
ab sen
0 .
por tu
politi cally</w>
effek tiv</w>
brie fly</w>
al t</w>
lar gely</w>
Stoff e</w>
wer ten</w>
produ ktion</w>
sa w</w>
publis hed</w>
Bedar f</w>
wieder um</w>
sol ange</w>
Meer es
mark et
zu vor</w>
er enden</w>
Entwickl ungsh
con vergence</w>
ü t
parlamentar ischen</w>
Un gar
re chten</w>
deb ating</w>
berich terstat
all zu</w>
über prüfen</w>
den k
Volk spartei</w>
succ eed</w>
pla ying</w>
en falls</w>
em ar
Sto ck
Geb äu
verhin dert</w>
strengthen ed</w>
glob ale</w>
führ ungs
ck ung</w>
St atisti
contra cts</w>
Indi en</w>
3 7</w>
wor l
prä z
gest ärkt</w>
ad just
sor ganisation</w>
Milit är
gleich heit</w>
Übri gen</w>
ur gency</w>
behavi our</w>
Constitu tional</w>
c entre</w>
Ar ten</w>
al ter</w>
Lebensmittel sicherheit</w>
F ach
0 -
ver tr
steu er</w>
kompli zi
ir ischen</w>
W est</w>
portu gi
om e
C oh
äl fte</w>
lar gest</w>
umfangre ich
kurz em</w>
geogra phi
es ts</w>
wiederhol t</w>
neh mer</w>
coher ent</w>
be danken</w>
v ar
perfec tly</w>
B la
fül lung</w>
follow s</w>
br ings</w>
derzei tige</w>
equi pment</w>
pro ved</w>
ab ol
Wür de</w>
wün scht</w>
stärk ere</w>
electri city</w>
Bedürf nisse</w>
pap er</w>
mär kte</w>
man chmal</w>
Ver k
Ver heu
Kommissionsprä sident</w>
Resol ution</w>
B it
op s</w>
k tur</w>
ans wers</w>
ass ess</w>
Kor ruption</w>
zi vi
sub mit</w>
fro h</w>
argu ment</w>
ange l</w>
Sp iel</w>
G M
it ely</w>
Wirtschaf t
Di kt
zusätz lichen</w>
ver breit
ent täu
um setzen</w>
sy ch
eed ed</w>
Sol ana</w>
Rati fizierung</w>
Isra eli</w>
Ander erseits</w>
me at</w>
g ol
Al liance</w>
Prot ection</w>
M illenn
u ßt</w>
War en</w>
min ute</w>
konfron tiert</w>
bis lang</w>
L it
Emp loyment</w>
D es</w>
gr ö
g ere</w>
C am
der te</w>
Ko operation</w>
under taken</w>
der ship</w>
intel le
sovereign ty</w>
main taining</w>
Staats -</w>
wirk lichung</w>
sp ür
schwer en</w>
Verheu gen</w>
regu lar</w>
ins ist</w>
ant räge</w>
nehm bar</w>
gi e
C he
wer fen</w>
inter nation
a mending</w>
Lebens mittel</w>
Gegen stand</w>
ziem lich</w>
re siden
Untersuch ungen</w>
lie f
ver wenden</w>
Energi en</w>
erinn ert</w>
Steu ern</w>
Nahrungs mittel
Grenz e</w>
ge beten</w>
g ust</w>
mor al</w>
be unru
er freut</w>
ak tive</w>
Ratsvor sitz
durch führen</w>
frü her</w>
N a
territori al</w>
ges tri
beinhal tet</w>
wen ig
Vor teil</w>
Vor red
verän dert</w>
ti erten</w>
ben achteili
In stead</w>
b es</w>
Gere chtigkeit</w>
Abstimm ungs
pris on
medi zin
super vision</w>
italien ischen</w>
B ürokrati
P a
lea dership</w>
Ge wi
tur ning</w>
strö m</w>
qu ar
n en
grö ßer
S ar
zer r
strateg ischen</w>
pri vi
jun ge</w>
comp ul
univers al</w>
comm un
Ver wirklichung</w>
o w</w>
3 .</w>
se ven</w>
in ely</w>
ver lassen</w>
ul ture</w>
su ffer</w>
dra sti
beru ht</w>
Ein schrän
vorhan den</w>
teu erung</w>
Sub ject</w>
be zü
an sprechen</w>
Ins besondere</w>
fest gelegten</w>
belie ves</w>
illeg ale</w>
alit äts
Bereit stellung</w>
Proz eß</w>
k amp
gel n</w>
L atin</w>
Agen turen</w>
sor y</w>
soli di
produc ing</w>
e f</w>
Ti be
zu ständig</w>
wä ch
unter schei
Wal d
Besch rän
kti v</w>
W TO-
M ex
won ach</w>
tex ts</w>
suffici ently</w>
W asser</w>
B is
dele g
Ver kehr
T age</w>
se eing</w>
2 .</w>
plan ts</w>
Metho den</w>
G as
zi g</w>
Bes ei
v a
signific antly</w>
condem n</w>
über ein
ein gebracht</w>
In dones
zusammen zu
Zyper n</w>
sto ßen</w>
regel ung</w>
proz eß</w>
ver stehe</w>
ei ra</w>
gan g
care ful</w>
multin ation
Per son</w>
H älfte</w>
dür fte</w>
des wegen</w>
on going</w>
ende av
satis fied</w>
prä sen
jem and</w>
ch s
adv ance</w>
An geb
p le</w>
Ver halten</w>
grenz e</w>
den den</w>
b ann
re stor
Fisch ler</w>
dis posal</w>
Sch aden</w>
He ads</w>
Aus arbeitung</w>
identi ty</w>
dec la
offer ed</w>
bis her
Re present
Chan cen
Be trifft</w>
A ID
mark ed</w>
ge wissen</w>
Haushal ts</w>
Besei tigung</w>
st -
mit teilen</w>
difficul ty</w>
amend ed</w>
ag ne</w>
absen ce</w>
Frü h
tu m
erle bt</w>
ck er</w>
ch em</w>
Vol l
Ö ffnung</w>
beschrän ken</w>
z ens</w>
signific ance</w>
Wirtschafts politik</w>
Fin land</w>
Bereit schaft</w>
us ers</w>
an te</w>
st opp
ko st
wä s
Teil nahme</w>
un möglich</w>
transi tion</w>
par liament</w>
medi cal</w>
n icht
lich keiten</w>
I T
restruc turing</w>
pre -
he av
unver züglich</w>
i ces</w>
genü gend</w>
ex tr
cap it
dri ving</w>
f ak
Ko oper
G AP</w>
A ktions
verur teilen</w>
H O</w>
vir tu
u tive</w>
ro om</w>
en vis
S -
Er weiter
acci dents</w>
Vor lage</w>
Sta ates</w>
Bro k</w>
19 7
high lighted</w>
un be
thre aten
län dischen</w>
er o
St and</w>
Mechan ismen</w>
In kraft
sur vi
ne ws</w>
te in</w>
lear ning</w>
sch reiben</w>
hinzu fügen</w>
Schi ffe</w>
J ourn
wach sen</w>
dist inc
Ver sammlung</w>
Fak toren</w>
teil nehmen</w>
tin i</w>
sp h
lie ben</w>
leg ally</w>
ac tively</w>
Au gust</w>
Ash ton</w>
extre me</w>
ent weder</w>
e g
Wh ite</w>
liber al</w>
zuneh mend</w>
V ier
n ers</w>
grenzüberschreit enden</w>
Fe der
ter nal</w>
S ing
Aus nahme</w>
manufac tur
ati schen</w>
ackno wledge</w>
Energie effizienz</w>
vis ory</w>
verursa cht</w>
ex ports</w>
E R
Hel sin
Th urs
wär tige</w>
m ung</w>
Vol kes</w>
Gipf el
Chan cen</w>
überzeu gen</w>
Wirtschafts krise</w>
wel ches</w>
schwer wie
Chancen gleichheit</w>
schätz en</w>
Mon at</w>
ver weisen</w>
u ationen</w>
S ud
Fähig keit</w>
Fo od</w>
fig ure</w>
beein trächti
S al
Re chten</w>
avo i
wat ers</w>
valu able</w>
sch reck
et te</w>
Hinder nisse</w>
ven ts</w>
bre ak</w>
betra cht</w>
befürwor ten</w>
sor gungs
Proto col</w>
A T
verletz ungen</w>
in zwischen</w>
genu inely</w>
An betracht</w>
propor tion
feh l
türk ischen</w>
h aus
frü heren</w>
co de</w>
Stabilitä ts
G U
199 2</w>
ves sels</w>
compul sory</w>
bre ite</w>
v ali
refer ring</w>
satisfac tory</w>
re m
erh ält</w>
ab ilities</w>
Con sequently</w>
ar ti
Rechnung shof</w>
politi ken</w>
Ban ken</w>
de liber
bes itz
zu ver
Hung arian</w>
gere gelt</w>
nah me
Komm un
angenommen en</w>
Aus grenzung</w>
kehr en</w>
dien st</w>
ber n</w>
Nach hal
zu gr
interpre tation</w>
bew ußt</w>
ung er</w>
le ads</w>
cla im</w>
Thurs day</w>
Bedro hung</w>
spezi ellen</w>
rech tzei
fu els</w>
Pati enten</w>
ver trag</w>
ausgezeichne te</w>
Krä fte</w>
resul ting</w>
negoti ation</w>
an gehen</w>
Program men</w>
Inter nal</w>
ver bo
P as
re min
off enen</w>
gegenwär tige</w>
Beit räge</w>
sicher gestellt</w>
mom ent
en kt</w>
Pal ästin
zus ehen</w>
pati ents</w>
ni veau</w>
Ein stellung</w>
Bevölk erungs
Entsch lossenheit</w>
PPE- DE</w>
E F
is ol
besteh ende</w>
ar dis
Führ ung</w>
zentr ale</w>
Proble mati
M ot
Gaz a</w>
ste chn
inv est</w>
consider s</w>
buil t</w>
tele vision</w>
le y</w>
l esen</w>
E W
so dass</w>
s er</w>
len ken</w>
Ur spr
defic it</w>
Tex ti
fün f
D e</w>
1 ,
p sych
dies bezü
ate g
Zus atz
Wis sen</w>
Lauf e</w>
ti ere</w>
sta at</w>
p rise</w>
Mor e</w>
Au stausch</w>
th -
pri mary</w>
Wirtschaftswachst um</w>
Ele k
Weit eren</w>
Saf ety</w>
Hand lungs
Al li
erst ens</w>
cho ose</w>
V AT</w>
Con trol</w>
v ings</w>
militär ischen</w>
entfern t</w>
dis tor
a part</w>
kulturel le</w>
Men ge</w>
sus p
inves tieren</w>
Be fore</w>
weit gehend</w>
gen ce</w>
freu en</w>
be comes</w>
ut ung</w>
re p
es ten</w>
assu me</w>
transi tional</w>
en -
c ate</w>
be ur
Sek tors</w>
e fully</w>
lich ten</w>
Ge werk
sugges ted</w>
sha dow</w>
se where</w>
run ning</w>
low ing</w>
bed ing
K openhagen</w>
4 8</w>
th eit</w>
re di
kurz fris
gen ie
compati ble</w>
Sch ä
sch em
enjo y</w>
On ce</w>
gewähr en</w>
il s</w>
den jenigen</w>
Bürgerbeauftra gten</w>
Allgem einen</w>
al -
a side</w>
Vertre tern</w>
G DP</w>
ou l
Pre mier
Demo kraten</w>
laun ch</w>
K ategor
vis ib
steh ende</w>
par allel</w>
M ich
GU E</w>
Protokol ls</w>
Nor thern</w>
Mr d.</w>
ig eri
ge ehrte</w>
Vertra ges</w>
s sen</w>
neighbour s</w>
koh är
an ces</w>
Wi ll</w>
M angel</w>
spra ch
n es</w>
m al
da ily</w>
Gre ens</w>
ze i</w>
Woh n
Moder nis
Ger ade</w>
inf rin
destru ction</w>
cons ci
eri ode</w>
ar ischen</w>
ange kün
Sen kung</w>
M erk
ur red</w>
1 ;</w>
1 1.
&#9 1;</w>
si eben</w>
is ter</w>
an zunehmen</w>
an sch
Co operation</w>
acc es
wirk liche</w>
Par lia
200 7-
ver häl
sustain ability</w>
reco gnis
ergän z
W est
Mechan ismus</w>
tex ti
comp li
Kandi dat
Verbrauch ern</w>
Ver halten
Region al</w>
promis ed</w>
gefähr det</w>
Georgi a</w>
Bit te</w>
some one</w>
main tained</w>
ein geleitet</w>
char ges</w>
mi ß
decla red</w>
constitu te</w>
antra gs</w>
mo bi
mensch liche</w>
de x</w>
Tei le</w>
Sou verän
Fremden verkehr</w>
Ex ternal</w>
regar ded</w>
ich ts
grundsätz lich</w>
prepar ation</w>
Um strukturi
ehemali gen</w>
mangel n
laun ched</w>
auf nehmen</w>
proble me</w>
el sewhere</w>
N ational</w>
Liber alen</w>
K lim
Brit ain</w>
regre t
neighbour ing</w>
n ischen</w>
Ide en</w>
reques ts</w>
fri ends</w>
umfassen d</w>
u lar</w>
C i
ori ent
cle ar
Ge ist</w>
Sud an</w>
Nach druck</w>
Be w
stim ul
indi cated</w>
il ater
Ur sachen</w>
Kontin ent</w>
be zeichnet</w>
Wiederauf bau</w>
An lass</w>
bereit gestellt</w>
Spra chen</w>
i red</w>
Abgeordne ter</w>
num bers</w>
neh me</w>
fest zustellen</w>
Austri an</w>
3 2</w>
dou ble</w>
Verletz ung</w>
T amp
Ar e</w>
stru g
c ars</w>
beschrän kt</w>
spee ches</w>
gro ß</w>
geb illi
oppos ite</w>
Ver ab
Genehm igung</w>
Fischerei politik</w>
Demo c
ei m
In ner
g lück
schwieri ge</w>
w ent</w>
prison ers</w>
mil k</w>
is on</w>
geh enden</w>
p ic
Umwelt schutz</w>
is iert</w>
concentr ate</w>
ac compan
Perspek tive</w>
veran k
sch ritt
ob o
hö here</w>
hon our</w>
a des</w>
me ant</w>
l eng
b ürokrati
auton om
Gef än
Vor rang</w>
E Z
than king</w>
Tamp ere</w>
Stru ktur</w>
Ser bien</w>
Krank heit</w>
x i
w ine</w>
col labor
Er haltung</w>
pos sibly</w>
ev a</w>
benö tigt</w>
Kroati en</w>
EI B</w>
rel ativ</w>
Hin weis</w>
über winden</w>
f our
avi ation</w>
hori zon
entwick elten</w>
K op
investig ation</w>
ent ru
ar t</w>
D ingen</w>
y mp
re ds</w>
par tly</w>
Dur ing</w>
Do es</w>
identi fy</w>
deli ver</w>
identi fied</w>
Op position</w>
Helsin ki</w>
obli ged</w>
Stock hol
rele ase</w>
di ox
bedauer lich</w>
R a
3 ;</w>
&#9 3;</w>
tar ge
pre viously</w>
open ed</w>
le m</w>
g keits
environ ment
ur ban</w>
tes ts</w>
re construction</w>
der er</w>
angemessen en</w>
be einf
Re vision</w>
welt weiten</w>
versch är
pre chen</w>
o vis
medic ines</w>
gemein schaft</w>
Lissabon- Strategie</w>
I M
hei m
Konfli kte</w>
pro of</w>
Sit uationen</w>
v in
timet able</w>
stell te</w>
multilater al</w>
jud g
g ischen</w>
Schwer punkt</w>
viel er</w>
in adequate</w>
great ly</w>
an -
Ziel setzungen</w>
Kon text</w>
Bel ast
sus pen
lo gi
l as
groß em</w>
gebie ten</w>
funktion ieren</w>
S timmen</w>
S omm
mo reover</w>
la y</w>
Problemati k</w>
e ties</w>
ck er
I mp
sel be</w>
phy si
Wesent lichen</w>
Kon vergen
ziel e</w>
propor tion</w>
Vertr au
12 .00</w>
or ies</w>
necess arily</w>
Bur ma</w>
A -
ver halten</w>
ubli n</w>
re in</w>
Schul z</w>
Nachbar n</w>
Ern ähr
interes siert</w>
fahr ens
er ho
con tain</w>
befürwor tet</w>
N RO</w>
or e</w>
appoin tment</w>
Ge fühl</w>
Ü ber</w>
vor bereitet</w>
tra gic</w>
schle cht</w>
gest atten</w>
g a</w>
T isch</w>
Sch luß
pas siert</w>
deser ves</w>
ben en</w>
behaup ten</w>
ateg ory</w>
With out</w>
Ru ß
Fan g
über ra
zurück zuführen</w>
ob jek
ver z
complic ated</w>
compe tent</w>
am s</w>
on e-
Verhalten s
Risi ko
C an</w>
ori cal</w>
4 .</w>
Ur teil</w>
v it
tion ary</w>
implic ations</w>
Leist ungen</w>
Er füllung</w>
Bed au
zu künftigen</w>
th u
finanzi eren</w>
ener gie</w>
Tä tigkeiten</w>
N achtei
ter ri
fi es</w>
Unter schied</w>
Eng lis
lis ation</w>
ep tion</w>
des t</w>
comple ted</w>
bewäl tigen</w>
aff ir
Arbeitsplat z</w>
wirtschaft lich</w>
g ress</w>
Ver ts</w>
Respe kt</w>
Gemein schaften</w>
re move</w>
pra gmati
deb ated</w>
da fri
Presiden ts</w>
gele gte</w>
Er richtung</w>
C a
neg ativen</w>
fav ourable</w>
einf ach
Th us</w>
Sch atten
Doku mente</w>
. e
pos sibilities</w>
T en
1 1.</w>
lan ce</w>
after noon</w>
stei gen</w>
je denfalls</w>
G ar
fe ed</w>
en ing</w>
voll ständige</w>
Posi tionen</w>
vor liegen</w>
exten sive</w>
D ublin</w>
wil ling
sen den</w>
militär ische</w>
enfor cement</w>
angewand t</w>
F ri
Energi equ
vor sieht</w>
geh ende</w>
Vorsitz enden</w>
suffer ed</w>
attemp ts</w>
Ab hängi
über aus</w>
th ly</w>
se kre
räu men</w>
ein sei
be fasst</w>
aff ects</w>
M er
speci es</w>
b all</w>
Comm on</w>
top ic</w>
ac ted</w>
P läne</w>
ta lit
komple x
ed ing</w>
S cot
Po st
m essen</w>
langfris tig</w>
Be grün
beabsichti gt</w>
Auf hebung</w>
2 1.</w>
soci eties</w>
bes u
pre ise</w>
him self</w>
wesent licher</w>
u l</w>
garan tiert</w>
la p
i dly</w>
Kon vention</w>
weit ung</w>
ran che</w>
ger aten</w>
Comm un
wer ke</w>
pp ing</w>
o re
he ad</w>
es day</w>
Je der</w>
Er reichung</w>
besonder er</w>
be antworten</w>
Ungar n</w>
Mehr wert
Entwicklungsh ilfe</w>
D än
su itable</w>
it age</w>
palästinens ischen</w>
exp lic
compe ten
näch ster</w>
car rying</w>
op tions</w>
au stausch</w>
Verteidigungs politik</w>
E D
Ha ving</w>
müs ste</w>
woh l
rau ms</w>
e b
en ded</w>
ren e
inten tions</w>
d ul
Slo wa
Regu lierung</w>
Min uten</w>
Belgi an</w>
ier ungen</w>
cent res</w>
P hi
F u
su che</w>
sh aushal
hel ped</w>
Aus weitung</w>
issu ed</w>
ge teilt</w>
in spec
cho sen</w>
Her kunfts
ze go
chtfer tigt</w>
Don ner
ra tion
kap it
conduc ted</w>
AID S</w>
spezi elle</w>
hal ts</w>
Partn ern</w>
Her zego
K OM</w>
Durch setzung</w>
scho ol</w>
heal thy</w>
ge führten</w>
al co
Verab schied
A ktion</w>
üs sen</w>
willing ness</w>
vor stellen</w>
verbun denen</w>
stitu tion</w>
geb oten</w>
bro a
Klar heit</w>
verab schieden</w>
re ven
re isen</w>
Stra ft
San ter</w>
tro tzdem</w>
d wide</w>
c ut
Ver ordnungen</w>
Kap az
zu gän
se eks</w>
prosp ects</w>
fa che</w>
es ische</w>
Sach ver
Garanti en</w>
schem es</w>
rinzi p</w>
ig t</w>
T u
Kenn zeichnung</w>
Donner stag</w>
ungs -</w>
su rely</w>
adverti sing</w>
u ally</w>
pri or
hear ing</w>
at ures</w>
Wahr ung</w>
Verabschied ung</w>
t w
pos ing</w>
Be k
er weiter
för derung</w>
sou thern</w>
po o
ir re
ne ar</w>
ch st
Re gel</w>
E M
Dritt staaten</w>
ges ich
bedeut ende</w>
Be achtung</w>
zah ler</w>
ten tion</w>
m ien</w>
co ast
Regional politik</w>
tradi tion</w>
p el
einzel ne</w>
Ju gend</w>
poo rest</w>
letz ter</w>
faci lities</w>
De ta
Aut on
rati fied</w>
audi ovis
Ex isten
ell es</w>
ssi er</w>
einstimm ig</w>
do w
Finanzi erungs
Aus maß</w>
lü ck</w>
je gliche</w>
trage dy</w>
fu sion</w>
f ischen</w>
Represent ative</w>
Pot enzi
klär ung</w>
dis tribut
ten e
govern ing</w>
de als</w>
T elek
Ges ellschaften</w>
itä tsp
geh andelt</w>
isch em</w>
gen -
be fu
ar ise</w>
Bürokrati e</w>
sym pa
enn ess</w>
defin itely</w>
Prä sidi
religi ö
keines wegs</w>
h ü
entscheiden den</w>
consider ations</w>
bil det</w>
Au ge</w>
se bene</w>
C hi
Ab fall
b ing</w>
Dem on
her gestellt</w>
drück en</w>
R oh
Belgi um</w>
uni form</w>
B IP</w>
z edon
Zeit plan</w>
S ad
Menschenrechts verletzungen</w>
Anmerk ungen</w>
success fully</w>
Souverän ität</w>
zufrie den
res s
Grün buch</w>
Besch luß</w>
An gst</w>
ra ising</w>
defin i
prinzi p</w>
guarante eing</w>
ga p</w>
g ine</w>
ex por
th ers</w>
er reich
chair man</w>
Ein kommen</w>
wh ereby</w>
wa ffen</w>
spre ad</w>
land wirtschaftlichen</w>
ver tra
op enness</w>
extr a</w>
con tro
in ev
high ligh
geb unden</w>
französ ische</w>
C F
ver sit
rü st
recht fer
N S</w>
B ild</w>
2007- 2013</w>
un ilater
l usses</w>
Li thu
Gesetz es
zu gestimmt</w>
sto ß</w>
excep tion</w>
bedau ere</w>
Techn ologie</w>
Frau en
fair ly</w>
weis ung</w>
lauf enden</w>
No ch</w>
Er arbeitung</w>
respon ding</w>
gemeinsam es</w>
Z ul
i .e
i.e .</w>
addres sing</w>
D ad
Behör de</w>
su gar</w>
sp ite</w>
si ght</w>
diplom atic</w>
müs sten</w>
hier bei</w>
aus gerichtet</w>
UN O</w>
Rau ms</w>
O ri
Da für</w>
stän de</w>
Poli zei</w>
Mon tene
3 6</w>
Alli anz</w>
2 .
ökonom ischen</w>
gel ingt</w>
Zah lungen</w>
Ver breitung</w>
zäh lt</w>
sor ry</w>
cu ts</w>
Un ser
Land wirtschafts
Hung ary</w>
r at
Au th
pu rely</w>
alis iert</w>
N igeri
sur v
schwe dischen</w>
const ant</w>
bestimm ungen</w>
acci dent</w>
Hoh e</w>
lar ity</w>
g ü
Dad urch</w>
C S</w>
unanim ously</w>
r ist
einger ei
zugr unde</w>
mis take</w>
is mus
iel t</w>
chec k</w>
bes it
Men sch
Ge fan
Gan g</w>
For um</w>
we alth</w>
und ing</w>
so weit</w>
gi gen</w>
Ol ymp
C le
3 4</w>
gebra chten</w>
Um gang</w>
H ol
fre ih
acqu is</w>
Finn land</w>
worl dwide</w>
con serv
Tran s
P an
B ir
st ein</w>
lo se
ess ed</w>
B S
w an</w>
mark t
cor e</w>
sorgfäl tig</w>
em en</w>
appro xim
Menschenre chten</w>
199 3</w>
ment ation</w>
St reit
pen sions</w>
on ed</w>
gesch rieben</w>
dep end</w>
rel atively</w>
langfris tige</w>
herr sch
dar gelegt</w>
Dan ish</w>
nation als</w>
her vor</w>
demand ing</w>
de par
statt findet</w>
w ehr
sph äre</w>
sec ut
F lor
er er</w>
uropä ischen</w>
sek tors</w>
modi fied</w>
fortun ate</w>
foc used</w>
E ver
ref ers</w>
max im
CO D</w>
sin stru
oph ob
Vor be
aus üben</w>
über lassen</w>
in folge</w>
aus geschlossen</w>
ver tritt</w>
sor ge</w>
h inter
grei ft</w>
for um</w>
dru g</w>
F our
ó n</w>
wes enheit</w>
tel ec
stre am
stat tung</w>
c op
E ri
radi o
aus wirken</w>
wil li
sol ely</w>
her zustellen</w>
bet reiben</w>
Trag ö
leit ung</w>
hund reds</w>
Ever y
stres sed</w>
seit en</w>
reli able</w>
in akzeptabel</w>
effizi ent</w>
al em</w>
Ge win
inter institutional</w>
he ading</w>
gli cher</w>
essen tially</w>
erlau bt</w>
Tibe t</w>
Inter essen
Hil fs
anges ehen</w>
Gali le
zw ingen</w>
cra ft</w>
ch ap
St unden</w>
west lichen</w>
tre ff
easi ly</w>
correc tly</w>
ck s
Schä den</w>
Aut om
li e</w>
hop es</w>
b our</w>
Ta i
über greif
exten ding</w>
er teilen</w>
determin e</w>
deta illi
Pal ästinens
wei len</w>
unabhängi gen</w>
a p</w>
ö sterreich
harm ful</w>
dienst leistungen</w>
R E
strateg ische</w>
besitz t</w>
increas es</w>
ey e</w>
pla yers</w>
b lin
P en
För der
Akte ure</w>
es se</w>
ei ght</w>
us ual</w>
re action</w>
rap idly</w>
fore most</w>
d rit
back ground</w>
e ken</w>
c yc
uneingeschrän kt</w>
geographi cal</w>
w -
ein ameri
bes tre
Ver fahrens</w>
Ban an
pa ying</w>
in st
fir e</w>
ass ist</w>
Tro tzdem</w>
Er kenn
ter s
resp ects</w>
loo ked</w>
Tim e</w>
Slov ak
Nachhal tigkeit</w>
Mitarbeit er</w>
st am
sel t</w>
Person en
L ag
Inkraft treten</w>
l ust</w>
di ed</w>
anerk ennen</w>
K ab
russ ischen</w>
kontrol lieren</w>
g nen</w>
de -
5 5</w>
zu erst</w>
ro lle</w>
be völk
ad vice</w>
z eiten</w>
tu red</w>
to ols</w>
spra ch</w>
redu zieren</w>
pl us</w>
V ie
Aspek ten</w>
ven tion
schließ e</w>
experien ced</w>
be ef</w>
verletz t</w>
e astern</w>
a g</w>
Slo ven
Ei gent
Argu mente</w>
fü gt</w>
Freih andel
EC B</w>
C iti
0 ,
Formu lierung</w>
3 3</w>
absur d</w>
Qu alitäts
Betrie be</w>
so bald</w>
k lear
bre ak
Nation al
Modernis ierung</w>
Di rek
Überein kommens</w>
sa ch
be utung</w>
Subsidiar ität</w>
H ab
Bes itz
t ag
phenomen on</w>
W here</w>
Her stellung</w>
wor st</w>
t ent
pri or</w>
heav y</w>
ge plan
consider ably</w>
car bon</w>
Sad dam</w>
äu men</w>
wissen schaftliche</w>
unter bro
sc and
n it
remain ing</w>
gran ting</w>
feel ing</w>
claim s</w>
Zwis chen
8 .</w>
prof its</w>
depen ds</w>
ange wendet</w>
6 .</w>
taxpay ers</w>
power ful</w>
di ty</w>
bel ast
3 8</w>
sta ke</w>
d än
Funktion ieren</w>
fahr t</w>
b ul
H ome</w>
D oh
Bud getary</w>
jen er</w>
Abhängi gkeit</w>
thre ats</w>
offen bar</w>
do c
woh ner</w>
ver gleich
st äd
inter nen</w>
be ge
aus gaben</w>
L oh
Doh a</w>
sto ck</w>
reich s</w>
is hing</w>
emphas ised</w>
wa ff
sp orts</w>
shor t-
mi um</w>
bureauc racy</w>
ber t</w>
Vor stellung</w>
F ar
sp end</w>
as selbe</w>
Wich tigkeit</w>
S K</w>
Doku menten</w>
B oth</w>
dec ades</w>
Ergeb nissen</w>
Berat ungen</w>
un an
regul ated</w>
disp ute</w>
ä fen</w>
wor thy</w>
sta un
r i</w>
Ju gosla
Fak tor</w>
w under
sich ere</w>
re ve
4 2</w>
Wir d</w>
enti al</w>
drück t</w>
Ter rit
Jo int</w>
pi ece</w>
op pose</w>
ge treten</w>
zusammen arbeit</w>
zi p
usi as
sup posed</w>
K ann</w>
hab t</w>
adap t</w>
Kin no
achie vement</w>
Zuständi gkeiten</w>
Erwä gung</w>
cl assi
ber aten</w>
Kommunik ation</w>
ungs politik</w>
beeinf lus
Soci alists</w>
Energi es
ü st
veröffent licht</w>
V e
regi onen</w>
heal th
eindeu tige</w>
at ur</w>
N or</w>
Jahr zehn
umfas st</w>
pro u
kon struk
gre en</w>
enab ling</w>
wor rying</w>
lin ien
Ab än
ri gor
her itage</w>
found ed</w>
communi cations</w>
all ing</w>
S h
satisfac tion</w>
respek tieren</w>
Refer endum</w>
Flücht ling
C uba</w>
Aus beutung</w>
vor hin</w>
st adt</w>
f ers</w>
4 9</w>
w asser
unter suchen</w>
kon tin
i ze</w>
gemeinsam er</w>
ari a</w>
Poli zei
Bel gien</w>
Aussch üsse</w>
mod ell</w>
kü m
j our
bewer ten</w>
pp e</w>
ei ler</w>
dis cip
legitim acy</w>
Identi tät</w>
Anwen dungs
führ enden</w>
Ver fahrens
Ru ral</w>
Ger icht</w>
alco ho
stab ilität</w>
effek tive</w>
An stieg</w>
sa vings</w>
nor men</w>
der ed</w>
Luxem burg</w>
minis ter
enter ed</w>
Zu wander
O per
Kapit al
cris es</w>
Mac edon
Kapit el</w>
Hä fen</w>
As soci
intelle ctual</w>
Recht sa
tic les</w>
rec all</w>
c larity</w>
besei tigen</w>
Jus t</w>
Europ ar
wa ge</w>
entz i
de cken</w>
doub ts</w>
aktu elle</w>
skil ls</w>
s au
hist orical</w>
hervorra gende</w>
supple mentary</w>
regret table</w>
manufactur ers</w>
be trieben</w>
applic able</w>
R ass
Netz e</w>
Le gi
sen sib
contribut ed</w>
Gest atten</w>
komm un
k urr
Kinno ck</w>
4 3</w>
Mar ok
tak ings</w>
t land</w>
streng th</w>
Schutz es</w>
CO 2-
Auton om
6 5</w>
where as</w>
ek tor</w>
ar med</w>
Z wan
w th</w>
Ham as</w>
Gro wth</w>
zei chen</w>
geeigne te</w>
wel chem</w>
u ßer
in sp
geb il
Augen blick</w>
Anhör ung</w>
Ä ußer
Off enheit</w>
w ahren</w>
es sions</w>
Verf asser</w>
Unterneh men
Un der</w>
di ge</w>
S äu
S on
control led</w>
ver dienen</w>
hab it
erör tert</w>
anzu wenden</w>
ahr t</w>
ris ing</w>
rechtzei tig</w>
con vention</w>
Best re
An träge</w>
lässi g</w>
ima gine</w>
hy po
de a
pro mp
k i
et c</w>
competen ces</w>
ati ver</w>
Subsidiar itätsp
eh ol
D at
wah l</w>
los oph
ira ble</w>
c ans</w>
Partner ship</w>
Mor occ
Gr öß
fest legen</w>
Ma zedon
unterbreit et</w>
restri cted</w>
is land</w>
formu liert</w>
dynam ic</w>
Ver fol
Produ kten</w>
Energie politik</w>
zu kommen</w>
to -
ab lehnen</w>
Nach frage</w>
Minister rat</w>
Den mark</w>
l ying</w>
finan ced</w>
ch -
Y or
passen ger</w>
f ei
cal cul
Premier minister</w>
Parlia mentary</w>
Montene gr
Liber al</w>
E L
ü r</w>
d lichkeit</w>
an wenden</w>
af ra
Abstimm ungen</w>
w inn
refle cted</w>
comp on
D u
ans wer
Niederlan den</w>
H under
Energiequ ellen</w>
wirtschaf ten</w>
constitu tes</w>
Lat einameri
Bes teuerung</w>
incorpor ated</w>
erlau ben</w>
wäh len</w>
statt gefunden</w>
E V
vor gehen</w>
ra tions
europ a</w>
dict ator
ar ticle</w>
B ol
vi ces</w>
komm erzi
gegensei tigen</w>
Schen gen-
ali en</w>
En d
Am t</w>
Jugen dlichen</w>
Altern ative</w>
deli ver
Telek ommunik
un necessary</w>
histor ischen</w>
big gest</w>
Kom pro
Auth ority</w>
under takings</w>
fort setzen</w>
vi l</w>
ti m</w>
ou red</w>
geb ung</w>
fuhr en</w>
edu c
Un s</w>
Geor gien</w>
griech ischen</w>
besch ließen</w>
enthal tenen</w>
Dän emar
klär en</w>
dep th</w>
Mon o
Finanz krise</w>
t ance</w>
ge tr
Minder heit</w>
trans fer
proto col</w>
prakti sche</w>
perform ance</w>
gra vier
der ly</w>
exam ined</w>
bei behalten</w>
Fr ist</w>
E gyp
Ent schä
7 .</w>
schn eller</w>
endgül tige</w>
encoura ged</w>
appli cations</w>
Schatten berichterstat
P H
Mi lose
E P</w>
Aus sage</w>
wider spie
applic ant</w>
Ar men
un ab
re place</w>
pur ch
Richt linien
199 0</w>
st ed</w>
prou d</w>
cher maßen</w>
struk turel
enh ance</w>
proc essing</w>
m ü
gra ph
gere chtfertigt</w>
de tri
Gipfel treffen</w>
negoti ated</w>
über wachen</w>
best ände</w>
Zi vi
Sch war
P hän
Fort setzung</w>
succ eeded</w>
fir ms</w>
Viel zahl</w>
Pf lan
viol ation</w>
verstär kte</w>
sta y</w>
remo ved</w>
in ess</w>
Pol ish</w>
Jahrhunder t</w>
st olz</w>
Haushaltsp lans</w>
4 00</w>
wor ding</w>
arbeit s
sc ru
draf ting</w>
reser ve</w>
hal t
Legi tim
EZ B</w>
bil dungs
li c</w>
ei en</w>
aus wärtige</w>
Wirk samkeit</w>
Mon ti</w>
Ab bau</w>
ver la
stat ing</w>
o ber
k lu
ab end</w>
W in
erör tern</w>
ag gres
Associ ation</w>
oblig ator
k as</w>
Ruß land</w>
Kandidat en
lit ät</w>
klär t</w>
k olle
gener ell</w>
finanzi erung</w>
et schen
St adt</w>
mean ing</w>
ie den</w>
sag ten</w>
per su
demokrati sch</w>
Citi zens</w>
zeu g</w>
glie der</w>
cour ts</w>
R oth
region aler</w>
qu iry</w>
lief ert</w>
eng age</w>
T aten</w>
sm aller</w>
scho ols</w>
durch zusetzen</w>
belie f</w>
at edly</w>
ac tors</w>
Auf grund</w>
wi en</w>
ri es
ener g
citiz en
ab schließend</w>
Grund sätzen</w>
hö heren</w>
fra g
er lassen</w>
ci de</w>
c ategor
thor ough</w>
hon est</w>
Beob ach
erneuer baren</w>
thre sh
mus sten</w>
aff ecting</w>
ver zerr
u .</w>
fäl lig</w>
Morocc o</w>
Begrün dung</w>
er gibt</w>
Rand lage</w>
Betra cht</w>
part- session</w>
gesund heit
Stabilitä tsp
n ight</w>
b ot
vor zunehmen</w>
Klima w
sub jects</w>
ratifizi ert</w>
ent rep
Dro gen</w>
D ele
zu künftige</w>
prot ec
every body</w>
ab sch
3 9</w>
sum mer</w>
religi on</w>
ob tained</w>
Ratsvorsitz es</w>
Montenegr o</w>
K ir
wit n
Zu stand</w>
Qu ali
sa ke</w>
s wi
k einem</w>
interven e</w>
hin aus
Ver teilung</w>
In dustry</w>
Beam ten</w>
dis abled</w>
F assung</w>
Berichterstat tern</w>
reiter ate</w>
ier enden</w>
gel ingen</w>
reserv ations</w>
pl at
höch ste</w>
einger äumt</w>
Tour ism</w>
T A</w>
4 4</w>
verbo ten</w>
consequ ence</w>
all s</w>
k ar
gre enh
alis ieren</w>
ver wiesen</w>
targe ted</w>
konzentri ert</w>
allo cation</w>
öffent lich</w>
reagi ert</w>
evi dent</w>
P SE</w>
represent ation</w>
explan ation</w>
exclu ded</w>
der i
afra id</w>
Mis sion</w>
Hal b
grenzüberschreit ende</w>
bekräf tigt</w>
9 .</w>
n utz
Mil ch
Ges icht
Vor gehensweise</w>
post -
Vie tn
Sich erung</w>
Mor gen</w>
zweit er</w>
s co
restor e</w>
regel mäßig</w>
ab stain
Sub stan
Steuer zahler</w>
deser ve</w>
air lines</w>
Stu dien</w>
Män gel</w>
mechan ismus</w>
lüs si
erwähn ten</w>
c lu
market ing</w>
er arbeitet</w>
enor me</w>
Wäh ler</w>
Er inn
ut most</w>
äußer ster</w>
vereinbar t</w>
tik et
ein gerichtet</w>
L T</w>
vorhan denen</w>
present ing</w>
im pe
citizen ship</w>
O EC
Gericht shofs</w>
Fun ktion</w>
scru tin
s ligh
r en</w>
Führ ungs
ung ere
I ts</w>
lea der</w>
fair en</w>
Fra gest
wah len</w>
freih eiten</w>
Br enn
ff n
er weise</w>
er setzen</w>
be merk
Y es</w>
Be ziehung</w>
Be tro
fu hr</w>
defin iert</w>
bes tra
Rass ismus</w>
zusätz lich</w>
last ing</w>
declar ations</w>
besit zen</w>
basi ert</w>
F I</w>
i on
f loo
beteili gten</w>
A pp
we ak</w>
kor rigi
coun ter</w>
F uß
Außen minister</w>
kn üpf
größ er</w>
mechanis men</w>
berich ten</w>
Legisl ativ
Auf enthal
sa ve</w>
amtier ender</w>
S ah
Person al</w>
P S
ru m
greenh ouse</w>
C ulture</w>
persön lichen</w>
grün den</w>
Klim a</w>
ü bung</w>
mün dlichen</w>
konstruk tive</w>
inc enti
a th
0 s</w>
tu s</w>
län dische</w>
con f
bedro ht</w>
Wissen schaft
Ein heit</w>
C 4-0
vi c</w>
ver ehrten</w>
sit e</w>
er wiesen</w>
deep ly</w>
w ed</w>
regis ter</w>
f em
Journ alisten</w>
j ahr
hand el
ft mals</w>
estim ated</w>
Erweiter ungs
f lä
Be trag</w>
pleas ure</w>
mo un
im por
bureauc ratic</w>
sp er
sen ken</w>
prof it</w>
kan di
gebie te</w>
lös ung</w>
alis ing</w>
Z im
Ver sorgung</w>
ök ologischen</w>
simpli fication</w>
endgül tigen</w>
anti cip
Rom an
ma p</w>
la ß</w>
begrenz t</w>
Koh är
Fest stellung</w>
Assozi ierungs
sp ät</w>
s mus</w>
sur ro
stä tigkeit</w>
s ein
er mor
Prü f
Erzeu ger</w>
sh aring</w>
phi c</w>
lie ber</w>
f ur</w>
c o</w>
ausge geben</w>
iz ation</w>
ha z
c ast
Mus li
toler ance</w>
mehr fach</w>
N et
. 30</w>
s ought</w>
ing ton</w>
cre ates</w>
Yugosla via</w>
B ö
ress ourcen</w>
f res
effizi ente</w>
Res er
al te</w>
erheb lichen</w>
dra w
ator ium</w>
S port
vor liegt</w>
ver trau
ss on</w>
join tly</w>
deb at
bo und</w>
Tun is
Slovak ia</w>
Rin d
tre aties</w>
post pon
negoti ate</w>
Projek ten</w>
Aus führung</w>
unterbreit en</w>
u rement</w>
schnit t</w>
elec toral</w>
Welth andel
Lab our</w>
A ct</w>
zu zu
gu i
b ten</w>
T ieren</w>
ver wei
lea ving</w>
Sp eci
wel comes</w>
vor nehmen</w>
Fragest unde</w>
Aus nahmen</w>
Aus einander
en cies</w>
P u
Initi ativ
wei ght</w>
W ol
Mad rid</w>
C NS</w>
in i</w>
Mittelmeer raum</w>
surpris ed</w>
cht es</w>
all -
Weiß buch</w>
Ger ichts
unterschied lich</w>
re au</w>
incenti ves</w>
import antly</w>
ge fasst</w>
ein führen</w>
der o
credi ble</w>
c as
Sü d
G anz</w>
prosp ect</w>
V o
Gewi cht</w>
shi p
S ehr</w>
sch einen</w>
bilater alen</w>
befürwor te</w>
Gipf els</w>
Galile o</w>
D el
view ed</w>
er fordern</w>
do or</w>
chec ks</w>
Klimaw andels</w>
General sekre
sin cer
li tion</w>
einzel staatlichen</w>
be antra
z y
peri ode</w>
gegen über
G et
ton nes</w>
repe atedly</w>
auf treten</w>
ad mit</w>
Tsch ech
terri ble</w>
mo tions</w>
geh e</w>
Kompeten zen</w>
Kohär enz</w>
Imp ul
vernünf tig</w>
Entschließ ungen</w>
ver län
k tes</w>
eit ern</w>
Sy m
Sch wä
Bestimm ung</w>
ran t</w>
Potenzi al</w>
Konsul tation</w>
I G
out standing</w>
berei chen</w>
K uba</w>
kon sequent</w>
hin gegen</w>
h it</w>
Mazedon ien</w>
zus agen</w>
Auf trag</w>
stat ten</w>
respek tiert</w>
lie genden</w>
im port</w>
er teilt</w>
mu g
el er
Katastrop hen</w>
H us
Gener ation</w>
neu tra
in hal
ey es</w>
ch i
c ategory</w>
bisher igen</w>
Her steller</w>
v ast</w>
k riterien</w>
expres sing</w>
4 6</w>
zentr alen</w>
r ats</w>
breit en</w>
Eben en</w>
be aring</w>
ar rest</w>
1 50</w>
Äußer ungen</w>
pro ch
Nachbar schafts
Fern seh
a y
Bus h</w>
suspen ded</w>
ong side</w>
Se ever
Gest altung</w>
sugges tions</w>
gesetz ten</w>
draf ted</w>
Wettbewer bs</w>
ro ads</w>
ed s</w>
buil dings</w>
Steu er</w>
Slowa kei</w>
Kommissions vorschlag</w>
justi fy</w>
b lu
Wachstum s
tari at</w>
L ob
In fl
Bla ir</w>
Arbeitneh mer
m acro
im peri
connec ted</w>
Ameri ka</w>
t ar</w>
offen e</w>
ersch einen</w>
cons isten
cer ti
alis tische</w>
Dänemar k</w>
8 5</w>
ic ro
candi dates</w>
be währ
a .m.</w>
Unter zeichnung</w>
Stockhol m</w>
Garanti e</w>
Fol lowing</w>
Al koh
so genannten</w>
sho wing</w>
prec au
erinn ere</w>
T od</w>
Autom ob
ter in
in sofern</w>
ah me</w>
nach denken</w>
gli ed</w>
employ ers</w>
Sozial demokraten</w>
Er wer
com ings</w>
s ön
nah e
mäß igen</w>
h ungen</w>
combin ed</w>
S P</w>
Haf t
Aus nahm
tre gi
führ ende</w>
bes timmen</w>
Ameri kan
Um feld</w>
Sch w
z -
is tics</w>
gra d</w>
ge prä
einzu beziehen</w>
ch a
anges tre
Bu ch
pla cing</w>
logi cal</w>
Z war</w>
Rind fle
Bar on
Alban ia</w>
natür lichen</w>
läu fig</w>
erwähn te</w>
ck ed</w>
In seln</w>
Hum an
Einwander er</w>
Ci vil</w>
th in</w>
sym bo
sti pul
refle cts</w>
expen sive</w>
compla ints</w>
Besu ch</w>
über sch
sit zung</w>
sett lement</w>
excep tional</w>
Le bens</w>
kin ds</w>
bin dung</w>
am es</w>
Konsul t
Kommiss are</w>
te ach
trans actions</w>
Gesch ä
Absch luß</w>
sch ö
geeig net</w>
W ar</w>
Ten den
Marok ko</w>
pu ts</w>
I II</w>
vernünf tige</w>
har dly</w>
den de</w>
aci o</w>
W ell</w>
Fr at
short comings</w>
r o</w>
em ed</w>
dead line</w>
V al
R en
Mat eri
ling u
le m
ärm sten</w>
val ent</w>
fle et</w>
elimin ate</w>
sci ence</w>
per cent
ac king</w>
Ä r
fähi gen</w>
dela ys</w>
Pres se
G V
ne arly</w>
gi pf
eth ical</w>
demokrati scher</w>
ak tiven</w>
Ser vice</w>
Macedon ia</w>
ähn liche</w>
y m
us er</w>
tri eben
peri ods</w>
er arbeiten</w>
w onder
stärk sten</w>
ni er</w>
ma ch
gab en
ven tive</w>
tra gung</w>
fe wer</w>
F utter
sp ap
mark tes</w>
tribu te</w>
tri al</w>
expen se</w>
Treib haus
F lo
EU R
rel ate</w>
health care</w>
au lt</w>
hil fre
gebilli gt</w>
drän gen</w>
Le ban
C er
t aus
red und
pat ent</w>
man che</w>
li ability</w>
glau bwürdi
ehr lich</w>
be antwortet</w>
W ur
Prä vention</w>
Argu ment</w>
Arbeits gruppe</w>
zu gute</w>
mar ine</w>
k as
fund ed</w>
Betru g</w>
unabhängi ge</w>
sch u
re vised</w>
län gst</w>
4 1</w>
. 000</w>
rei bt</w>
indi re
ge fragt</w>
dire kte</w>
deut liche</w>
Betrie bs
Auff or
sec ution</w>
gelan gt</w>
europ a
ess or</w>
dire kten</w>
broa der</w>
Finanz mittel</w>
Ehr e</w>
lie fer
bel on
beg ünsti
M utter
Bu reau</w>
m assi
ir ing</w>
c ur
Yor k</w>
Ver län
Ko sten
Finanzi ellen</w>
st sein</w>
per pe
lau b
kontrol liert</w>
beob achten</w>
tä glich</w>
tra ck</w>
pre ad</w>
ommuni cations</w>
i or
beizu tragen</w>
Atlan tic</w>
two -
n one</w>
gest altet</w>
expla ined</w>
ens yst
betrie be</w>
B is</w>
t ability</w>
r und</w>
found ations</w>
dig ital</w>
air craft</w>
Justi z
Eff ek
Ch em
afri kanischen</w>
Le ft</w>
Kul turen</w>
un employed</w>
u ti
pris on</w>
bevölk erung</w>
el derly</w>
ab or
zu stande</w>
pl ur
pic ture</w>
pas st</w>
je op
econom ically</w>
Christ demokraten</w>
prakti schen</w>
bedeut enden</w>
diesel ben</w>
des pread</w>
bel ow</w>
amb igu
vol u
o ftmals</w>
me is
ir ische</w>
Wer bung</w>
Vorred ner</w>
Krie gs
Europ a-
tr end</w>
tatsäch lichen</w>
an de</w>
ab geben</w>
unter sucht</w>
under line</w>
ne x</w>
ent standen</w>
Parla mentar
Hö chst
Ar me
v acc
sha pe</w>
sch were</w>
inf lation</w>
W ün
General dire
war mly</w>
mittel s</w>
ambi tion</w>
acc ur
Flu gges
Binnenmark ts</w>
coun t</w>
s ation</w>
Terror isten</w>
Pres se</w>
M ig
Frat tini</w>
EU- Ebene</w>
d ge</w>
Aus bau</w>
hervorra genden</w>
gi ble</w>
T onnen</w>
EG F</w>
a dem
201 5</w>
transatlan tic</w>
auth or</w>
Mär kten</w>
Kandi daten</w>
wi despread</w>
ten d</w>
repe ated</w>
l are</w>
cover s</w>
G ol
Bewe gung</w>
Mol do
prepar ations</w>
resul ted</w>
gu n</w>
gh äfen</w>
Wer t
Tit el</w>
post al</w>
lar ger</w>
comp u
Rück kehr</w>
be endet</w>
La eken</w>
kur ze</w>
bio diversity</w>
F ünf
war ning</w>
er ing</w>
e ar</w>
Kü sten
un den
te ktion
rac ism</w>
hand els</w>
gesich ert</w>
cor por
au sch
Uni versit
ten e</w>
ing u
grundle gender</w>
wh o
metho den</w>
ier ende</w>
tig ungs
ti erte</w>
kl einer</w>
il is
enth usias
bre ch
alcoho l</w>
Su per
Kern kraft
über prüft</w>
än d
rit ts</w>
Sch rift
Ratspräsiden ten</w>
um gehen</w>
th alten</w>
se u
mus ste</w>
depen dence</w>
publi c
n onetheless</w>
m its</w>
gegeben enfalls</w>
educ ational</w>
condem ned</w>
Gleich behandlung</w>
undermin e</w>
Pal acio</w>
Milose vic</w>
Konta kt</w>
E qu
verein bar</w>
z z
hoch wer
füh len</w>
St ei
sever e</w>
preser ve</w>
ou gh
ar my</w>
Grund freiheiten</w>
Über arbeitung</w>
penal ties</w>
glei chermaßen</w>
famili ar</w>
C re
Bra zi
mor al
kil led</w>
Besonder s</w>
secre t</w>
out set</w>
Zun ahme</w>
Nigeri a</w>
Ausnahm ere
wissen schaft
ut ter</w>
sich eren</w>
ro ots</w>
l -
ci ally</w>
Über gang</w>
tw ent
sch lage</w>
geh ol
boo st</w>
ar z
Vereinig te</w>
Menschen handel</w>
ge dacht</w>
Sta at
I ran
regul ar
ari o</w>
Ver lauf</w>
Euro zone</w>
Euro st
unzureich end</w>
gradu ally</w>
ent gegen</w>
Ministerprä sident</w>
C E</w>
wirtschaf tung</w>
re tain</w>
Be wäl
sit es</w>
regul ate</w>
ec ological</w>
tackl ing</w>
ausreich ende</w>
auf t</w>
Mol da
C ot
versch mutzung</w>
un fortunate</w>
sol ch</w>
erforder liche</w>
d less</w>
c ele
Bar nier</w>
t licher</w>
sti ll
lie fern</w>
enhan ced</w>
be kun
Fre e</w>
E tiket
stu ffs</w>
less ons</w>
k eit
ig no
gefähr lich</w>
bedau ern</w>
R adi
Ein schätzung</w>
li erungs
ag no
ab gegeben</w>
Stabilitäts -</w>
Bewäl tigung</w>
mono po
S w
Islam ic</w>
E MU</w>
Ara b</w>
stitu tion
physi cal</w>
We ch
Arbeits bedingungen</w>
ein halten</w>
Rahmen programm</w>
Cle arly</w>
w are</w>
be zieh
W ash
her aus</w>
hei k
ber at
be came</w>
De f
würdi gen</w>
ver zeichnen</w>
inter governmental</w>
abo lition</w>
Mul ti
Kon kurr
Heimat land</w>
Automob il
quot a</w>
los ses</w>
her bei
ent steht</w>
canc er</w>
ar men</w>
ein sch
S A
lar ation</w>
fre ely</w>
T ausende</w>
D auer</w>
eingerei chten</w>
ein treten</w>
Ver trägen</w>
V en
wäs sern</w>
program men</w>
be zahlen</w>
Verlän gerung</w>
Unter drück
öffent licher</w>
krä f
h ence</w>
fres h</w>
dec lare</w>
conc ent
Lithu ania</w>
ger ing</w>
ge kenn
di eren</w>
d ol
au ßen
Frieden s</w>
14 9</w>
ö st
m ei
fru it</w>
W erten</w>
Palestin ians</w>
Mitentschei dungs
u red</w>
steu ern</w>
occ urred</w>
ernsthaf te</w>
W andel</w>
Gu ant
tran se
su ms</w>
rä gt</w>
extre m</w>
B ah
ti gh
ed y</w>
Schul en</w>
ver mitteln</w>
exp an
9 2</w>
rech nen</w>
produ kte</w>
in en</w>
ie ty</w>
fis ch
R unde</w>
O ver</w>
ri k</w>
recom mend</w>
Drit tel</w>
weit aus</w>
di versi
collabor ation</w>
Inner es</w>
sch wei
feder al</w>
Organ en</w>
Jahres bericht</w>
protec tion
indic ate</w>
in sufficient</w>
erläu tern</w>
er ende</w>
K lu
E th
sec tion</w>
ot ten</w>
Transpor t
K al
vi able</w>
Re chen
mitt lung</w>
air ports</w>
Verfol gung</w>
Ob viously</w>
Dol lar</w>
si ven</w>
sha res</w>
nah e</w>
li min
di um</w>
der jenigen</w>
civili an</w>
un certainty</w>
langfris tigen</w>
indic ators</w>
er geb
Stand punkte</w>
y outh</w>
lan gem</w>
b aus</w>
Ver s
Kraft fahr
I L
über mitteln</w>
coordin ate</w>
ch ain</w>
ausgewo genen</w>
agre es</w>
accompan ied</w>
Z er
wid ely</w>
persön liche</w>
Hus sein</w>
umwelt freund
st ages</w>
kre is</w>
caus ing</w>
Lib y
unterbro chen</w>
isl am
gewäh lten</w>
Qu oten</w>
wa gen</w>
sup por
recei ving</w>
her stellung</w>
dig it
basi cally</w>
Parla menten</w>
son sten</w>
ges ellschaften</w>
bevor stehenden</w>
Kür ze</w>
größ ter</w>
alis ierten</w>
Statisti ken</w>
Medi en
unanim ous</w>
popul ations</w>
congratul ations</w>
Loh n
wel t</w>
vor her</w>
realis tisch</w>
rail way</w>
pe l</w>
ordnungs gemäß</w>
mäß igkeit</w>
Tai wan</w>
Beschrän kungen</w>
8 -
stu dents</w>
ar ising</w>
a mend</w>
Gener ationen</w>
sugges tion</w>
mobi le</w>
divi ded</w>
d t</w>
Zwec ke</w>
Vis ion</w>
PP E</w>
z enten</w>
s ac
ignor e</w>
demonstr ates</w>
Finan zen</w>
projek te</w>
am e
Gen eva</w>
m em
listen ed</w>
fa ith</w>
eng aged</w>
ar tige</w>
Mar tin</w>
Konfli kt
h ouse</w>
gele is
be weisen</w>
terror ists</w>
ri ed</w>
op ou
dafri ka</w>
M ehr</w>
Dar fur</w>
katastrop hen</w>
effizi enter</w>
PPE- DE-Fraktion</w>
Entwicklungs zusammenarbeit</w>
ö ffnung</w>
offer ing</w>
ra w</w>
Verän derung</w>
So vi
zü ge</w>
zu tage</w>
telec ommunications</w>
system en</w>
exis tiert</w>
Tsch etschen
M igration</w>
gefähr den</w>
nah m</w>
extra ordinary</w>
er b
deut sche</w>
comm it</w>
beg an</w>
Verantwor t
Bosn ia</w>
te am</w>
ein fache</w>
beit rägt</w>
ab gesehen</w>
setz ungs
li erten</w>
finan ces</w>
dea ths</w>
Z entru
RE AC
gest altung</w>
Mehr wert</w>
Gen au</w>
Englis h</w>
A5-0 0
with draw</w>
uner lässlich</w>
gewis ser</w>
te x</w>
organ ise</w>
obser ved</w>
gesp ielt</w>
V it
tre at</w>
ro m
on y</w>
mäß ige</w>
höch st</w>
est y</w>
an g</w>
acces sible</w>
Sw obo
Spe zi
quali fications</w>
n den</w>
Peti tions
IG C</w>
fo rest</w>
elektron ischen</w>
de t
Präsidi um</w>
F l
um so</w>
hau shal
gener ations</w>
fol glich</w>
Beschäftig ten</w>
regar dless</w>
p act</w>
in er
de pri
d ing
Ver lust</w>
Tragö die</w>
Indi k
Europ a
4 7</w>
wur fs</w>
is ion</w>
gesch ätz
de fiz
associ ations</w>
Z ur
B re
under taking</w>
prevent ed</w>
par ents</w>
k ischen</w>
fes ten</w>
berechti gt</w>
Sch la
Kon zent
re lo
per mit</w>
ab les</w>
Völk erre
Flu ghäfen</w>
sichti g</w>
leg ed</w>
h s</w>
er setzt</w>
Gu ine
Ge brauch</w>
wid men</w>
sto ff</w>
no ise</w>
müß te</w>
Stra ßen</w>
will kommen</w>
schritt weise</w>
er weisen</w>
enttäu scht</w>
Par is</w>
I l
I I
wirk samen</w>
m ere</w>
konstru ktiven</w>
ge achtet</w>
coher ence</w>
begrün det</w>
under take</w>
har t</w>
Geschle chter</w>
visib le</w>
rec yc
Tim or</w>
um zu
pf lan
m uni
gegensei tige</w>
de ep</w>
Wil le</w>
Anrei ze</w>
verm ieden</w>
journ alists</w>
appe ared</w>
w ski</w>
im men
deter ior
behaup tet</w>
F ris
5 1</w>
verän dern</w>
Territ ori
Cha ir
it i</w>
für halten</w>
bel ong</w>
S he</w>
Da fürhalten</w>
k tive</w>
h et
cle an</w>
erzi elten</w>
environment ally</w>
d licher</w>
Haup tz
Ameri cans</w>
y r
stri ke</w>
frequ ently</w>
6 7</w>
st ing</w>
Vertre tung</w>
Can ada</w>
Bo den</w>
Baron ess</w>
to talit
kehr t</w>
eröff net</w>
Informations gesellschaft</w>
C entre</w>
mit zu
Wissen schaft</w>
Be urteilung</w>
en en
Swobo da</w>
N onetheless</w>
zwei f
dri vers</w>
auf bauen</w>
ar ab
abstain ed</w>
Su che</w>
s qu
ro ute</w>
necess ity</w>
erneuer bare</w>
bin den</w>
Schi cks
staat licher</w>
lüs sen</w>
cou ple</w>
Zim babwe</w>
territ ories</w>
suppli es</w>
present ation</w>
low s</w>
ern ste</w>
aufzu bauen</w>
mün dliche</w>
Zu ge</w>
Eurost at</w>
proc urement</w>
is ted</w>
ge be</w>
Wachstum sp
promot ed</w>
ursprün glich</w>
radi k
fort gesetzt</w>
PS E-Fraktion</w>
N eben</w>
I P
ster ben</w>
auf s</w>
Verletz ungen</w>
Sol lte</w>
öff nen</w>
interess ant</w>
d .
ver deut
sprü che</w>
parlamentar ische</w>
h our</w>
re ported</w>
no body</w>
em o
contro versi
P l
zugän glich</w>
Proz ent</w>
unterschei den</w>
igran ten</w>
cont acts</w>
vorsch lägt</w>
ut s
t emp
direc ted</w>
Fron tex</w>
inn ere</w>
be denken</w>
Unternehmen s
Sub ventionen</w>
Sch reiben</w>
Al les</w>
ver i
tal ked</w>
nütz lich</w>
gesell schaftlichen</w>
eig n</w>
eh n</w>
di ction</w>
sincer ely</w>
con fron
Sing le</w>
Po s
E R</w>
k ür
exter nen</w>
cust om
N etz</w>
- B
ung st
shor tly</w>
Er gän
EG -
y le</w>
rop s</w>
rein force</w>
mo ved</w>
hoh er</w>
ethn ischen</w>
benefi cial</w>
ali a</w>
Secon d</w>
zur zeit</w>
v ise</w>
sen z</w>
sen ding</w>
in wie
effici ently</w>
Erinn erung</w>
su d
occ ur</w>
fre cht
beschle uni
Exper ten</w>
unter liegen</w>
organis ierten</w>
Opf ern</w>
Finn ish</w>
pla ys</w>
opp el
inform al</w>
Vor wand</w>
Alban ien</w>
harmon ised</w>
colle ction</w>
Krä ften</w>
Existen z</w>
E valu
Zu cker
Cot on
Betru gs
tra tion</w>
strug gle</w>
krie g</w>
hier für</w>
contra ct</w>
ali tion</w>
Jugosla wien</w>
Aus sagen</w>
ver teilt</w>
k örper
erfolgreich en</w>
altern atives</w>
Dar in</w>
z ing</w>
pursu ed</w>
m ale</w>
gra ben</w>
glie derung</w>
zus prechen</w>
cont am
beschleuni gen</w>
angekün digt</w>
E EC</w>
re lie
drän gt</w>
be enden</w>
Ver stär
Mo st</w>
tan gible</w>
sol ved</w>
mitt ler
clear er</w>
b li
Ver sicherungs
Nich tregi
ne y</w>
leit et</w>
i ko</w>
he bt</w>
do ku
congratul ating</w>
Minder heit
K ern</w>
D ass</w>
Altern ativen</w>
se ek
radi cal</w>
di gungen</w>
Zusammen setzung</w>
versch le
fer enzen</w>
a h</w>
Entschließungs anträge</w>
ti ous</w>
sover eign</w>
si m
rah mens</w>
offen kun
kriti siert</w>
a i
Peti tions</w>
Nachbarschafts politik</w>
Vietn am</w>
Lateinameri ka</w>
Imm un
ungsp eriode</w>
reven ue</w>
clari fication</w>
Vizeprä sident</w>
Verhaltens ko
R ub
P le
H y
Grund lagen</w>
Con serv
ter ungen</w>
es ter</w>
Wash ington</w>
Mig rations
Mein ungen</w>
Haushalts jahr</w>
Groß teil</w>
Fähig keiten</w>
Dele g
w ände</w>
over -
ordnungs gemä
fore sts</w>
Ver an
H u
Ä gyp
be wiesen</w>
Ver stöß
Nichtregi erungs
Kommunik ations
Ha iti</w>
uni que</w>
pus h</w>
fal sche</w>
einzu gehen</w>
5 6</w>
krä ften</w>
entrep rene
di vision</w>
portugi esischen</w>
p tion</w>
hol en</w>
beglück wünsche</w>
verschieden er</w>
ermu tigen</w>
enlar ged</w>
di ert</w>
vol um
ehr ter</w>
dow n
demogra phic</w>
d asselbe</w>
conven tions</w>
a po
v an
techn ologie</w>
rechtfer tigen</w>
distinc tion</w>
bu y</w>
außer gewöhn
Emis sions
pel ine</w>
ex t</w>
ab zielen</w>
Volks wirtschaften</w>
Her an
transi t</w>
str enge</w>
defin ing</w>
cover ing</w>
b attle</w>
al ongside</w>
sign ing</w>
kl au
An y</w>
ref use</w>
gro w</w>
Vor gän
K u
Dec laration</w>
tru m</w>
sor gt</w>
col lap
bl ame</w>
auf rech
approxim ately</w>
Sp ann
Quali fik
Ob jec
mittl ere</w>
k rank
Straß e</w>
Kris en</w>
Betro ffenen</w>
verfüg baren</w>
serv ativen</w>
judg ment</w>
hig t</w>
au ßen</w>
acht ungs
Sovi et</w>
K lau
fac to</w>
beit re
Prä senz</w>
techn isch</w>
on i
enor men</w>
Stu den
EW G</w>
w unden</w>
hel pf
er heben</w>
ausge arbeitet</w>
Aus land</w>
po or
kes tein</w>
hei ßen</w>
consisten cy</w>
blo ck</w>
L icht</w>
Bol kestein</w>
er y</w>
aus einander
Stand pun
tim ely</w>
person nel</w>
klau sel</w>
emer ging</w>
W all
Koh len
ä te</w>
uni ons</w>
stra frecht
sexu ellen</w>
no ti
k aufen</w>
it ems</w>
isch -
hoh em</w>
aufrech ter
Off en
L eh
pp ed</w>
histor ische</w>
bekräf tigen</w>
bei hilfen</w>
O therwise</w>
Ira q
Aus übung</w>
t less</w>
percent age</w>
inte gra
E very</w>
min e</w>
dis appointed</w>
Rede zeit</w>
Arme e</w>
tig ten</w>
sc ep
nahe zu</w>
der e</w>
Medi ka
Fer r
stric tly</w>
nor thern</w>
Inte gra
new spap
moder nen</w>
ic als</w>
Eri ka</w>
wer tung</w>
thir d-
sh e
rejec tion</w>
m ess
da vor</w>
consul ted</w>
cho ices</w>
chem ical</w>
be wirken</w>
as ing</w>
Pf lichten</w>
EC HO</w>
Di ffer
vehic le</w>
far -
W ein
Arznei mittel</w>
ü ch
ti scher</w>
erfolgreich e</w>
ass es</w>
Ma cht
resp ecting</w>
jur is
hier zu</w>
g ling</w>
em bo
appar ent</w>
Li ke</w>
pak et</w>
observ ation</w>
legisl ativen</w>
exclu sively</w>
erk annt</w>
ausführ lich</w>
Rechts sicherheit</w>
J edoch</w>
Hoch schul
pre fer</w>
ch ann
bew ahren</w>
Gesprä chen</w>
unanim ity</w>
simpli fy</w>
er es</w>
einig t</w>
bed ürf
al ed</w>
controversi al</w>
aff ord</w>
W ill
Th eir</w>
Außen grenzen</w>
st ations</w>
oper ative</w>
wiederhol e</w>
Tour ismus</w>
Moldo va</w>
Kon vents</w>
zwec k
lo ans</w>
f öder
Untersuch ungs
S ter
An k
trans -European</w>
isti sch</w>
hoh es</w>
Mer co
low -
la m</w>
ko sten
har m</w>
ühr en</w>
hi elt</w>
OEC D</w>
w indi
ver handeln</w>
tor ture</w>
texti le</w>
organis ierte</w>
des irable</w>
ameri kanische</w>
er suchen</w>
eil lance</w>
sy n
su r</w>
sta k
Verantwor tlichen</w>
Rom e</w>
Hin sichtlich</w>
ber g</w>
M s</w>
Joh ann
le hnt</w>
be zeichnen</w>
b ungen</w>
Sitz ungen</w>
Fak ten</w>
w ischen</w>
str in
mar king</w>
helpf ul</w>
vorange gangenen</w>
vor n</w>
ten den</w>
stütz en</w>
loo ks</w>
def ending</w>
Sozial politik</w>
Schu ld</w>
L ö
Che chn
Besch werden</w>
desig n
s low</w>
zusammenzu arbeiten</w>
voll ständigen</w>
den cy</w>
be gun</w>
al on
Ver sprechen</w>
Som it</w>
Rede beit
tz us
t ally</w>
schle ch
tradition ellen</w>
rul ing</w>
mu ß
jud ge</w>
Wich tig</w>
Bra si
tro ops</w>
t ative</w>
son sti
proch enen</w>
answer ed</w>
Stat ut</w>
illu str
i or</w>
eigent liche</w>
dist ingu
Z erstör
S par
In spek
Chechn ya</w>
eigen es</w>
bi ld</w>
F öder
four th</w>
c rops</w>
threaten ed</w>
ord ed</w>
intensi v</w>
gere ch
genau er</w>
einzu halten</w>
einzi g</w>
dis cre
Umstän de</w>
Po et
en du
K at
20 .</w>
stri chen</w>
occup ation</w>
da hin
accep tance</w>
Vor der
Stat ute</w>
Da vi
re vi
perspec tives</w>
lang sam</w>
Erfol ge</w>
Bew us
w ater
n ar
li ere</w>
lau gh
Welthandel sorganisation</w>
ss er</w>
re placed</w>
lossen e</w>
li f
korre kt</w>
El tern</w>
versi ties</w>
sp anische</w>
mä h
lä ß
fron ti
Angeb ot</w>
fahr t
distribut ed</w>
Sin d</w>
Markt wirtschaft</w>
Fre unde</w>
Fisch ere
An wesenheit</w>
israel ischen</w>
Solidar itäts
Rahmen bedingungen</w>
Fol glich</w>
An lagen</w>
A le
lok ale</w>
join ing</w>
ge habt</w>
Tun es
H IV</w>
st a</w>
spr ing</w>
re ti
na ment
dre i
compe te</w>
Rahmen s</w>
Poet tering</w>
Plan ung</w>
Lit auen</w>
199 1</w>
tzus etzen</w>
si x
con i</w>
Men sch</w>
Kompromis s
E duc
pres sing</w>
lis te</w>
ergän zen</w>
con fusion</w>
campaig ns</w>
T om
K ürz
Egyp t</w>
Dringlich keit</w>
B or
Ab sichten</w>
y our
vor aus</w>
surv eillance</w>
schrän ken</w>
gefähr lichen</w>
en ger</w>
beträcht liche</w>
V ot
T AC
k le
ens hr
Vorbe halte</w>
Verstär kung</w>
pos t</w>
kriti sch</w>
grün det</w>
for schung</w>
C y
An gehö
regi mes</w>
inv ite</w>
harm ac
Somm er</w>
Gebäu de</w>
Def ence</w>
C ro
f än
Hil fen</w>
BS E-
per mitted</w>
k ter</w>
fri end</w>
beginn t</w>
Er st</w>
Einzel heiten</w>
resu med</w>
pursu ant</w>
gen o
categor ies</w>
an lagen</w>
Coh es
th ilfe</w>
Zu gangs</w>
Vor stellungen</w>
Ver sorgungs
Kom it
Ein wände</w>
ück en</w>
your self</w>
sch auen</w>
ima ge</w>
Produ kt
Pap ier</w>
Cohes ion</w>
pro vo
im per
g otten</w>
den tly</w>
beru hen</w>
Au fre
- Bericht</w>
wom an</w>
verrin gert</w>
spartn er</w>
refle ction</w>
medi um</w>
hü tung</w>
för der
Schicks al</w>
Kategor ie</w>
Bosn ien</w>
wir ft</w>
restri ct</w>
e kt</w>
S IS</w>
la cking</w>
ban king</w>
Fre it
tion ally</w>
tief st</w>
hin weg</w>
er nen</w>
vol lem</w>
under stand
mis sing</w>
jäh rige</w>
experien cing</w>
Rent en
Kan ada</w>
mar g
Grün dung</w>
Pos selt</w>
C as
wünsch enswert</w>
re act</w>
ra ises</w>
lan ges</w>
US D</w>
gem essen</w>
geb lieben</w>
Sitz ungsperiode</w>
zu tiefst</w>
s me
gere chte</w>
g barkeit</w>
ausge führt</w>
Haf en
re conci
Unser er</w>
Invest ment</w>
zügi g</w>
fe a
erklär te</w>
W o</w>
ver wirklichen</w>
sa gi
Nach dem</w>
Flugges ellschaften</w>
re ise</w>
li fer
Nichtregierungs organisationen</w>
Beitritts verhandlungen</w>
ter most</w>
hinzu weisen</w>
Palest ine</w>
Brazi l</w>
wes tern</w>
ref used</w>
mar gin
kon stitution
her auszu
genie ßen</w>
Erzeu gung</w>
3 .
tradi tions</w>
kontin u
emis sion</w>
derar t</w>
Y our</w>
N ä
Mit wirkung</w>
Konta kte</w>
Gel tungs
EC O
B rie
w in</w>
s ales</w>
assess ments</w>
Kern energie</w>
Gü ter
Aus gang
ökonom ische</w>
unab ding
u ung</w>
recht lich</w>
mo tiv
Jahrhunder ts</w>
Isra eli
G ot
An hang</w>
thresh old</w>
küm mern</w>
kan en</w>
hom o
benefi ci
amtier enden</w>
Sü den</w>
S O
5 .</w>
schn elle</w>
ge plant</w>
d ated</w>
Fischerei abkommen</w>
pun is
por te</w>
impe tus</w>
highligh ts</w>
erweit ert</w>
ami k</w>
stak ehol
li a</w>
gefähr liche</w>
far ms</w>
Minderheit en
Ge is
prä sent
mi d-
integri erten</w>
in habit
be gangen</w>
Sch o
Ori enti
for gotten</w>
em and</w>
beitre ten</w>
an sehen</w>
Gem ä
1 -
zunehmen de</w>
zu mal</w>
ungsin stru
m as</w>
im posing</w>
ge klärt</w>
Inter vention</w>
Educ ation</w>
Aus richtung</w>
ou termost</w>
kontrol len</w>
einfach er</w>
conserv ation</w>
Vis um
T wo</w>
us ually</w>
integr ate</w>
gratu liere</w>
ch et</w>
Est on
wachsen den</w>
so ever</w>
sligh tly</w>
leich ter</w>
kap az
k amen</w>
er staun
emis sionen</w>
Hoh eits
G lück</w>
Flüchtling s
Fahr zeuge</w>
F il
Bil anz</w>
, 5</w>
proced ural</w>
Ein es</w>
5 7</w>
gemein schaftliche</w>
ein nehmen</w>
chin esischen</w>
bege gnen</w>
qu is
multi -
keines falls</w>
Reg arding</w>
Geh eim
ti se</w>
schen ken</w>
m icro
limin ary</w>
eventu ell</w>
amtier ende</w>
M ün
B au</w>
uni fication</w>
pop ular</w>
ne o
hous ing</w>
durch schnit
di t</w>
th ro
sup ran
sprech end</w>
sac ri
neh in</w>
fre ight</w>
exam ination</w>
deleg ations</w>
aufrechter halten</w>
7 1</w>
st em</w>
se as</w>
par ad
lok aler</w>
jün gste</w>
consequ ently</w>
author isation</w>
am a</w>
Wider stand</w>
sho wed</w>
dis agree</w>
con stra
acc eler
Pat ent
La sten</w>
amp ;</w>
Dienst stellen</w>
& amp;</w>
zerstör t</w>
n esses</w>
kontinu ier
comm o
character istics</w>
Eur at
wa cht</w>
verk n
stärk eren</w>
par tei
a il</w>
S am
Gewerk schaften</w>
to x
redu ziert</w>
m ein
Stellung nahmen</w>
x es</w>
sau ber
H on
Can c
Auffor derung</w>
ophob ia</w>
m ant
e di
cl ass</w>
Wieder herstellung</w>
tig te</w>
blo od</w>
auszu üben</w>
a i</w>
Selb st</w>
Schluß folgerungen</w>
sit zen</w>
si t</w>
p harmac
obser ve</w>
Un sicherheit</w>
Tunis ia</w>
viol ent</w>
hand ling</w>
Unterdrück ung</w>
wh at
represent ing</w>
form ation</w>
follow -up</w>
appro aches</w>
Kamp agne</w>
Integra tions
hop ed</w>
at ur
Beitritts kandi
what soever</w>
hilfre ich</w>
dramati c</w>
contin uation</w>
Gemeinschafts recht</w>
würdi g</w>
seek ers</w>
oh nehin</w>
inter im</w>
ide al</w>
Reg is
Mittelme er</w>
rail ways</w>
de z</w>
contribut ing</w>
T ali
los ing</w>
f it</w>
ab zielt</w>
Konfli kts</w>
Fran k
Europä isches</w>
tra gs
i op
er stellt</w>
der ing</w>
Durch führungs
le -
d. h.</w>
U C
Mich el</w>
Landwir ten</w>
198 9</w>
under lying</w>
hö her</w>
ein fachen</w>
beur teilen</w>
app el
Stei gerung</w>
v ation</w>
integr ity</w>
gi k</w>
en wert</w>
bewer tet</w>
Regu lierungs
. -</w>
unge achtet</w>
obser vers</w>
excep tions</w>
Vorder grund</w>
Sim babwe</w>
ges u
Verzö gerungen</w>
Ab fälle</w>
6 8</w>
techn ologische</w>
prot est</w>
ma r</w>
fähi ge</w>
and t</w>
all mäh
a sion</w>
N ei
Asi en</w>
5 2</w>
system atic</w>
sta in</w>
justi fication</w>
ben utzt</w>
T ele
Ple ase</w>
Gemä ß</w>
regul arly</w>
not ably</w>
maß geb
cir cul
ro us</w>
pre ventive</w>
particip ating</w>
fail ing</w>
ed n
ambi tions</w>
Fischere is
sub sequently</w>
sa d</w>
join ed</w>
O s
4 -
verank ert</w>
tsch ech
lan ger</w>
kon sul
destro yed</w>
danger s</w>
bann ed</w>
accord ingly</w>
S ri</w>
ú n</w>
residen ce</w>
lich sten</w>
klar er</w>
Hand lungen</w>
Entwicklungs politik</w>
Ban k
Al low</w>
dis par
Ver lu
zu geben</w>
pre liminary</w>
organiz ations</w>
m igrants</w>
Lu f
Bei m</w>
vorzu schlagen</w>
mer k</w>
ge fallen</w>
envis aged</w>
ar ten</w>
ar bit
Lebens mitteln</w>
sub jec
mer kt</w>
T atsäch
Per sön
Immun ität</w>
Belast ung</w>
soci o-
schul digen</w>
kon sequ
gekenn zeichnet</w>
ein her
e ligi
T r
Produ kt</w>
Produ k
Bedürf nissen</w>
st al
restri ctive</w>
jähr lichen</w>
accoun tability</w>
Subsidiaritätsp rinzip</w>
zwan gs
vali d</w>
Sti ll
In nen
wo zu</w>
wo für</w>
ti ver
rüst ung</w>
empfeh len</w>
Tatsäch lich</w>
Ho ffn
Auf sichts
re conciliation</w>
geogra ph
fo rese
au p
Man agement</w>
t at</w>
equi valent</w>
cul tures</w>
Sch luß</w>
Min ute</w>
Kap ital</w>
Eur or
man aging</w>
ge wünscht</w>
diesel be</w>
con vi
F a
sub sequent</w>
pre sident</w>
it ly</w>
ist ently</w>
g lo
ci des</w>
W edn
Kohä sion</w>
zunehmen den</w>
tie gen</w>
scrutin y</w>
sc en
ke en</w>
fle xi
compar ison</w>
Rechts rahmen</w>
J er
Em pf
vic tim</w>
soli d</w>
riteri um</w>
Religi ons
EL D
ö m
wä sser</w>
verstär kten</w>
ver stoßen</w>
klar stellen</w>
S te
Im pf
yn n</w>
sch wä
vor sitz
verkn üpf
tä r</w>
kön ne</w>
im ported</w>
chap ter</w>
Phän omen</w>
I A</w>
AS EA
organis ieren</w>
achie vements</w>
Euro- Mediterranean</w>
A h
spar ungen</w>
s outh</w>
ma kro
er ror</w>
Mit two
äuß erung</w>
gu il
beeinflus sen</w>
A z
person en
gew onnen</w>
ger in
extre mis
disp utes</w>
advan ced</w>
Ser bi
F lä
zu gelassen</w>
with draw
herr schen</w>
Y ear</w>
Tradi tion</w>
short- term</w>
schwier iger</w>
fo ssi
f am
ein richtungen</w>
defin ieren</w>
Merco sur</w>
Commun ist</w>
Chair man</w>
20 -
ror s</w>
eingeschrän kt</w>
def en
vi gor
surro unding</w>
sto ckung</w>
res istance</w>
mand atory</w>
confi dent</w>
ausgewo gene</w>
offizi ellen</w>
mo vements</w>
it ably</w>
Wedn esday</w>
Ser vices</w>
Ex port
lifer ation</w>
f es</w>
Tat sachen</w>
I A
Gleich wohl</w>
Behin derungen</w>
Al ters
á n
ver schaffen</w>
an streben</w>
M ag
jewei ls</w>
höch sten</w>
f lows</w>
Ven e
transatlan tischen</w>
t y-
incorpor ate</w>
ges to
er freu
chem icals</w>
schlim m
perf ect</w>
erho ben</w>
St unde</w>
REAC H</w>
Fern sehen</w>
vorrangi g</w>
uni versities</w>
sign s</w>
le ge</w>
ga ined</w>
ag anda</w>
advoc ate</w>
Solidar ity</w>
Mon day</w>
netz e</w>
L om
vers ary</w>
shaushal t</w>
lis ts</w>
k al
for t</w>
ci a</w>
bein halten</w>
an i</w>
Sozial partner</w>
ver bot</w>
no tice</w>
inc en
diesbezü glichen</w>
bor n</w>
0 1</w>
ann i
Lib an
Industrie politik</w>
Ernähr ungs
E co
in no
durch setzen</w>
durch gesetzt</w>
d äm
Verbin dungen</w>
R el
Me er</w>
un nö
fun ctions</w>
an halten
Ern ennung</w>
Arm uts
ver he
stöß t</w>
italien ische</w>
gene tically</w>
g ische</w>
erst re
e gal</w>
c rit
broad cast
Leist ung</w>
Kon jun
Ein stimm
9 3</w>
t t</w>
ques tion
li ked</w>
inhabit ants</w>
er a
cut ting</w>
and -
ail s</w>
Ver öffent
Infra strukturen</w>
tain s</w>
ex changes</w>
eventu ally</w>
erleich tert</w>
einzu richten</w>
Nach mittag</w>
Bru t
Arbeits weise</w>
selb st
gä be</w>
coast al</w>
ab ilität</w>
provi ders</w>
analy se</w>
eigent lichen</w>
Städ te</w>
E M</w>
stec ken</w>
n ische</w>
infra structures</w>
convi ction</w>
be an
Inte gr
Finanzi elle</w>
200 0-
man chen</w>
i ed
en er</w>
ass urance</w>
anzu gehen</w>
Ägyp ten</w>
er mächti
Feh l
Einschrän kung</w>
stat ute</w>
schw emm
fac tory</w>
app elli
Ziel setzung</w>
Qu ar
PH AR
Leban on</w>
Bürger rechte</w>
Aus ge
we a
Projek ts</w>
Brasi lien</w>
ver teilung</w>
um fassen</w>
no by
adequ ately</w>
Ein nahmen</w>
, 000</w>
x en
ver bieten</w>
thous and</w>
precau tionary</w>
mis takes</w>
for cing</w>
er -
concent ration</w>
ag nen</w>
Vorsitz ende</w>
Kön nen</w>
6 00</w>
w asser</w>
sugges ts</w>
ma chten</w>
Bau ern</w>
so zusagen</w>
o red</w>
is chen
Sk and
Objec tive</w>
D ort</w>
D ep
Bir ma</w>
vi gi
sent ence</w>
fe ars</w>
den heit</w>
anzu passen</w>
ad ul
P rop
experi ences</w>
bedau re</w>
Innov ationen</w>
Ge bur
unter strichen</w>
noby l</w>
ho sp
fi res</w>
Straf gericht
10 .</w>
wei le</w>
t ö
balan ces</w>
b te</w>
Spann ungen</w>
verpflich ten</w>
sti ck</w>
st rit
mär kten</w>
embar go</w>
em br
Tunes ien</w>
Mitentschei dung</w>
Fol gendes</w>
zah lungen</w>
vis ited</w>
se x</w>
mi ß</w>
infrin gement</w>
hol ung</w>
conv in
ch rist
Vor feld</w>
rati fy</w>
fa ire</w>
atta ched</w>
Ur sache</w>
Studen ten</w>
Pas sagi
H aus
Gemeinschaft sebene</w>
G lei
Fris ten</w>
sü dlichen</w>
in side</w>
f lü
au l</w>
an gehören</w>
Wall ström</w>
S m
C ould</w>
Bek ann
AL DE</w>
tä tigen</w>
stand ardis
le bt</w>
dri ve</w>
W äl
Präsiden tschaf
Kommiss ars</w>
Palästin a</w>
Lo gik</w>
Direc tor
Arbeit geber</w>
zeu g
kontrol l
acknowled ged</w>
Zu sch
Slo wen
Glau ben</w>
Gewähr ung</w>
woh n
monit ored</w>
land s
gestell te</w>
beru fen</w>
Mu gabe</w>
Betrie b</w>
vernünf tigen</w>
safegu arding</w>
res ource</w>
reduc tions</w>
convin ce</w>
conclu des</w>
W ritten</w>
Aussch üssen</w>
zw öl
yn amik</w>
s ah
organis iert</w>
inwie weit</w>
bekann tlich</w>
M ed
D um
D erzeit</w>
z ell
verein fachen</w>
lässi gen</w>
li s</w>
juris diction</w>
in spi
gel ung</w>
f en
dän ischen</w>
an wal
tu ms</w>
ol der</w>
neighbour hood</w>
n falls</w>
er a</w>
Einzel nen</w>
Dan ke</w>
le u
dec reas
ausgewo gen</w>
Sim il
Rechn ungs
Haushalts ausschusses</w>
Beh aup
überra scht</w>
who le
trans l
so il</w>
pol lut
olog ischer</w>
igno red</w>
hil ft</w>
führ er</w>
Simil arly</w>
Fi f
whole hear
sta ats
perpe tr
imm unity</w>
geprä gt</w>
Verhäl tnis
neg ativ</w>
erweiter ten</w>
dahin gehend</w>
Pu tin</w>
por no
n ich
human ity</w>
gewis s</w>
T ruppen</w>
In sofern</w>
verur sachen</w>
pri me</w>
fail s</w>
blin d</w>
beantra gt</w>
Zwan gs
Natur katastrophen</w>
Lib ya</w>
Institu te</w>
Dar le
6 6</w>
sympa thy</w>
strin gent</w>
schreit en</w>
contain ing</w>
com promises</w>
Sozi alisten</w>
Nordi r
Kompro miß</w>
H ence</w>
y be</w>
solidi erung</w>
offi ces</w>
liber alen</w>
as pe
S an</w>
Lei d</w>
ver pfli
stren gen</w>
schwe dische</w>
hund red</w>
ge kehrt</w>
ben de</w>
Tschetschen ien</w>
R ap
schul dig</w>
sa ving</w>
leg te</w>
gan z
Weiter entwicklung</w>
Sozial demokratischen</w>
Miss brauch</w>
D ra
stre icht</w>
prü f
pl au
organ ic</w>
leng th</w>
Kom ple
Fri day</w>
B ranche</w>
regi erung</w>
n ine</w>
ir regular
i res</w>
Tex tes</w>
Sch re
teil s</w>
le benden</w>
in al</w>
ft ware</w>
bre ach</w>
Deleg ationen</w>
techn ischer</w>
regel ungen</w>
k at
counter f
ab road</w>
a to</w>
St ück</w>
Aus legung</w>
Aus gleich</w>
ü gen</w>
om et
intelli gent</w>
f i</w>
ali zation</w>
Treibhaus gas
Iraq i</w>
Instru menten</w>
G 20</w>
listen ing</w>
kün st
bor ne</w>
Klu ft</w>
K no
zur äumen</w>
tar y-
fried lichen</w>
dro p</w>
dro ht</w>
Ein kommen
C rimin
Ab o
9 1</w>
ök ologische</w>
sym bol
incen tive</w>
Syri a</w>
Gesetzgeb ungs
6 2</w>
zw ischen
fried liche</w>
Umstrukturi erung</w>
Th rou
Flor enz</w>
accep ting</w>
Zentru m</w>
War en
sol di
siden tin</w>
sich ert</w>
pursu ing</w>
kompli ziert</w>
er stellen</w>
endu ms</w>
c y
Z eu
W ats
sch la
re formen</w>
no tes</w>
genau e</w>
em in
appelli ere</w>
Un regelmäß
Lan g
Anwendungs bereich</w>
müs se</w>
ignor iert</w>
de ad</w>
Gan zes</w>
schn ei
refuge e</w>
einig es</w>
Sat z</w>
verschle ch
ar di
ab uses</w>
Person al
wenig sten</w>
he ads</w>
dist ance</w>
c entr
anni versary</w>
Meinungs äußerung</w>
J arz
är er</w>
withdraw al</w>
fur thermore</w>
found ation</w>
einzu leiten</w>
diplom ati
c atastrop
beunru hi
Sit z</w>
Sa al</w>
s laugh
resol ving</w>
mod els</w>
invest ors</w>
f assungs
dec ent</w>
Urspr ungs
Steu erung</w>
Millenn ium</w>
L et
Jarz embo
w ahr</w>
non- governmental</w>
nam es</w>
li ger</w>
exper tise</w>
eröff nen</w>
demon stri
crimin als</w>
consolid ation</w>
al beit</w>
accur ate</w>
Regi mes</w>
Mittwo ch</w>
Gen u
z y</w>
z icht
sch ed
räum e</w>
reib ungs
ra sche</w>
pp en</w>
durch geführten</w>
at mo
Religi on</w>
Di plom
fre m
er ion</w>
cat ch</w>
an bieten</w>
Li i
D ynamik</w>
welt weite</w>
ra ss
kon zep
b acking</w>
angehö rigen</w>
Säu le</w>
Millenn i
Haushalts kontrolle</w>
C olle
stakehol ders</w>
lo t
investig ations</w>
imp ris
ger weise</w>
erweit ern</w>
erwar te</w>
bestimm ung</w>
bel gischen</w>
anspru ch
abzu lehnen</w>
Völk ern</w>
Tex te</w>
Is lam</w>
AKP- Staaten</w>
2 50</w>
w ages</w>
stream ing</w>
program ming</w>
crit erion</w>
Wats on</w>
Demokrati sierung</w>
recognis es</w>
k lin
gipf el</w>
genehm igt</w>
beg ri
Wer den</w>
Som e
Feh len</w>
Col om
st ation</w>
effek tiver</w>
b as
ann ten</w>
Zerstör ung</w>
Sen sib
pr ere
le z</w>
fol gerung</w>
an forderungen</w>
Y outh</w>
Lebens qualität</w>
Kooper ations
Kon z
H om
mean time</w>
cele br
bir th</w>
as sum
progres sive</w>
gn er</w>
finanzi eller</w>
f low</w>
exam ining</w>
b a</w>
G F
the ore
prere quis
mittel -</w>
fes thalten</w>
fel ong</w>
empf oh
ard ous</w>
abgesch afft</w>
Ver schie
Nor den</w>
Fol gen
ing lich</w>
einsch lä
Ziel s</w>
Sa chen</w>
Ex tre
14 2</w>
modernis ation</w>
mis chung</w>
geplan ten</w>
fin dung</w>
expan sion</w>
den ied</w>
bekämpf t</w>
an hand</w>
Zusammen halts</w>
Sicherheits -</w>
t y
rele ased</w>
inv ited</w>
inter ne</w>
de di
Wei l</w>
Lii kanen</w>
Liber als</w>
Er stellung</w>
D oppel
- based</w>
zurück kommen</w>
Rück gang</w>
G al
Cor bet
viel fäl
ven tions
ern e</w>
arri ve</w>
Mit bürger</w>
Kohäsions fonds</w>
Flüchtlin gen</w>
unver zicht
em pl
dictator ship</w>
ation stechn
as sets</w>
Sch eitern</w>
Priv ati
GM Os</w>
zah lung</w>
paragrap hs</w>
out lined</w>
feh len</w>
ei ling</w>
Ni emand</w>
Jarzembo wski</w>
lear ned</w>
ge denkt</w>
anspruch nahme</w>
Democ ratic</w>
i ken</w>
enter ing</w>
cons ent</w>
Israeli s</w>
var iety</w>
p her
Ungleich heiten</w>
wom it</w>
Wh o</w>
Johann es
Canc ún</w>
6 3</w>
transe uropäischen</w>
neu n</w>
ier ter</w>
handel s
fo od
exec utive</w>
König reichs</w>
Energiever sorgung</w>
Be g
äh erung</w>
i des</w>
bring ung</w>
Vorsitz ender</w>
C 6-0
nieder ländischen</w>
for tzusetzen</w>
b us</w>
Städ ten</w>
Kapaz itäten</w>
re affir
proportion ate</w>
ep i
Scot land</w>
M andel
vor ge
ut zutage</w>
sor ge
pro ven</w>
pre text</w>
Secre tary-
Crimin al</w>
5 3</w>
verein fa
re porting</w>
ra tional</w>
fä hr</w>
fif th</w>
exis tieren</w>
Aufre chter
A cht</w>
5 8</w>
t agung</w>
beruf lichen</w>
Entschä digung</w>
observ ations</w>
me t
iz ed</w>
evalu ate</w>
da hin</w>
autonom y</w>
O ther</w>
Asy l</w>
vis as</w>
unilater al</w>
la h</w>
gradu al</w>
ge fühl</w>
c eiling</w>
accoun ting</w>
Her kunft</w>
vern ach
ton ight</w>
ri ch
r ung</w>
exc ept</w>
verz ichten</w>
fem ale</w>
Lehr en</w>
Hei m
Effek tivität</w>
B illi
Überwach ungs
wen n
unter graben</w>
stei gt</w>
gebil det</w>
d ness</w>
Vorbereit ungen</w>
Secretary- General</w>
A ir
5 4</w>
wenn gleich</w>
wenig stens</w>
tro ub
super visory</w>
neg le
mentari er</w>
T ren
Partner schafts
Ausgang spunkt</w>
Auf stockung</w>
p esti
mot or</w>
kla res</w>
ge ehrter</w>
fair er</w>
di ver
bereit zustellen</w>
á nam
s low
regis tration</w>
größer er</w>
fall ing</w>
dec line</w>
c ere</w>
bewer tung</w>
Guant ánam
GV O</w>
Bal kan
An y
tei lungen</w>
kriti schen</w>
haz ardous</w>
fünf zehn</w>
dis mant
con fer
billi gen</w>
Sloven ia</w>
Re volution</w>
Natur ally</w>
Ann äherung</w>
über legen</w>
wirk ungs
verbin dliche</w>
ran ging</w>
ge k
Vit or
Schwei z</w>
deb atte</w>
coun tr
OS Z
Aufrechter haltung</w>
religiö sen</w>
gerich teten</w>
den d</w>
Sü do
Red ing</w>
OS CE</w>
Kommissionsmit glied</w>
Amerikan er</w>
Ö ko
rup t</w>
pharmac eu
gestri chen</w>
fif teen</w>
drit tens</w>
T ages</w>
Niederlan de</w>
Be vor</w>
Au stra
ru f</w>
re ci
pa in
be greifen</w>
Pf eiler</w>
H or
Dienstleistungs richtlinie</w>
19 .</w>
virtu ally</w>
ung arischen</w>
in quiry</w>
fan den</w>
derar tigen</w>
con ver
clos ure</w>
Schrift liche</w>
F ab
sin cere</w>
hop efully</w>
endeav our</w>
do ssier</w>
b lack</w>
Verzö gerung</w>
Indik atoren</w>
Über tragung</w>
vo ters</w>
min es</w>
interess ante</w>
Se e</w>
wirksam er</w>
ver steht</w>
ri gkeit</w>
pli n</w>
nachzu denken</w>
ge fügt</w>
beunru higt</w>
Mon tag</w>
Kompromis se</w>
rese arch
koordin ieren</w>
gä ste</w>
Texti l
Palästinens er</w>
Nä he</w>
In sel</w>
Ein er</w>
ö l</w>
third- country</w>
scienti sts</w>
li z
lei d</w>
e ast</w>
Wech sel
Vier tens</w>
Re den</w>
Konfli kten</w>
substan tially</w>
run gen
inten ance</w>
indi cation</w>
fo rec
bes agt</w>
all ed</w>
Konvergen z</w>
zi plin</w>
stren g</w>
ot o-
form ed</w>
es cap
ed ed</w>
cons istently</w>
b ischen</w>
Ver ur
9 4</w>
Änderungs antrags</w>
tie f</w>
multilater alen</w>
endor sed</w>
berechti gten</w>
alis ierungs
Be trei
An gol
v ina</w>
finanzi ell</w>
ergänz t</w>
ein s</w>
ar gue</w>
Gefan genen</w>
App ell</w>
Abo ve</w>
safegu ards</w>
qualit ativ</w>
moment an</w>
lich -
foc using</w>
explan ations</w>
an merken</w>
Liban on</w>
In anspruchnahme</w>
waff ne
ri eren</w>
qu es</w>
land wirtschaftliche</w>
hel ps</w>
fin ish</w>
dien sten</w>
T ür</w>
Mitgliedsta ates</w>
Johannes burg</w>
Einf luß</w>
ti k</w>
t um</w>
pre v
fulfil led</w>
S icht
Jugen dliche</w>
war n
sch em</w>
r ating</w>
f lüssi
br in
Corbet t</w>
phi losoph
human e</w>
dra fts
Op tion</w>
E v
zufrieden stell
wil ligen</w>
ein bringen</w>
al a</w>
Unregelmäß igkeiten</w>
Euro just</w>
lit äten</w>
lea ves</w>
kon fli
gel esen</w>
ge einigt</w>
fe atures</w>
deut licher</w>
com mend</w>
avoi ded</w>
With in</w>
Rub rik</w>
Er rungen
sel l</w>
renew ed</w>
b adly</w>
ate -
öff net</w>
f at</w>
Ver suche</w>
T emp
Aus sicht</w>
ver wirk
säm tlichen</w>
reich er</w>
no tic
ma intenance</w>
f la
conc ep
ag eing</w>
Vitor ino</w>
T oler
Sch n
Jahrzehn ten</w>
Jah re
Ad ministra
vertre ter</w>
pl ore</w>
größ t
consul tations</w>
bürger schaft</w>
beeinträchti gt</w>
b y-
ö tz
türk ische</w>
t ments</w>
shi pping</w>
partner ships</w>
fi xed</w>
c ast</w>
ba res</w>
Fre il
F ein
lic ate</w>
intelli gen
cl auses</w>
be haltung</w>
Ver fas
Terror ismus
Schul den</w>
Nordi c</w>
vorzu gehen</w>
voll ziehen</w>
geh ei
der selben</w>
F on
zwan zig</w>
pi lot</w>
far- reaching</w>
d estab
Ost europa</w>
Katastrop hen
Beitrittskandi daten</w>
wh el
thor ough
spür en</w>
sa ktionen</w>
ing ung</w>
i ka</w>
Ky oto-
wettbewerbs fähig
wahr nehmen</w>
ris k
re mark
isti scher</w>
essen ce</w>
Verhaltensko dex</w>
Molda u</w>
ou d</w>
metho de</w>
initi ally</w>
gener ate</w>
ern t</w>
comple tion</w>
appar ently</w>
Gra d</w>
Bos ni
An reg
8 9</w>
ver handelt</w>
tra in</w>
st ory</w>
it z</w>
g l
effek tiven</w>
de tention</w>
W ould</w>
Ver hin
Gleich heit</w>
Al ter</w>
ther ap
star kes</w>
over whel
min or</w>
S pen
P ir
Le ben
zwöl f</w>
olog isch</w>
mangeln de</w>
g ame</w>
c ope</w>
Kam pf
Ent täu
weit reich
socio- economic</w>
lo sigkeit</w>
ein beziehen</w>
Führ er</w>
every where</w>
disast rous</w>
W W
Lie be</w>
Klar en</w>
Bewus stsein</w>
exclu sive</w>
Ju gend
Über nahme</w>
weiter zu
ve get
unge fähr</w>
Ur he
Größ e</w>
v able</w>
t esting</w>
sp on
commer ce</w>
Syri en</w>
Sch ot
S wit
Phi li
Kompeten z</w>
über wacht</w>
teil genommen</w>
spezi fis
norm alen</w>
deu tet</w>
M el
D ie
trib utes</w>
t ough</w>
priv acy</w>
is ms</w>
sexu elle</w>
p ac
li erte</w>
gehol fen</w>
geeigne ten</w>
destro y</w>
Coton ou</w>
re publik</w>
ner ship</w>
m t</w>
li t</w>
f ought</w>
exp and
de voted</w>
arri ved</w>
Stabilitätsp akt</w>
Schwar z
Folgen ab
Aus gleich
sprech ung</w>
se arch</w>
pl ötz
nehm ern</w>
aus eln</w>
ad vis
Mensch heit</w>
2 1
produc tivity</w>
pres cri
po sts</w>
ic o</w>
exc use</w>
Kredi t
G ri
wür fe</w>
gnis erre
ge ous</w>
forder te</w>
contra st</w>
be achten</w>
In ten
Be tre
soli de</w>
sched ul
den y</w>
vent h</w>
ter min
ri d
reser ves</w>
enab les</w>
emer ged</w>
dam aging</w>
Legitim ität</w>
Eston ia</w>
Aus bildungs
ver trä
stru ck</w>
shi ft</w>
me ets</w>
is o
gew ahrt</w>
be zahlt</w>
Uni vers
strö me</w>
s é</w>
gro ss</w>
eh ende</w>
disp ens
sec tions</w>
gegeben en</w>
fli ghts</w>
author ised</w>
W erk
Her b
us alem</w>
simpli fied</w>
s le
pa ys</w>
ci ous</w>
vertr auen</w>
n omin
m in</w>
imper ative</w>
i ll</w>
besei tigt</w>
Tradi tionen</w>
S il
den selben</w>
Nordir land</w>
Guantánam o</w>
Dritt länder</w>
vor über
explic itly</w>
boo k</w>
be feh
Wissenschaft ler</w>
Spiel raum</w>
Liby en</w>
D im
or ds</w>
irregular ities</w>
defin iti
Beschäftigungs politik</w>
- Richtlinie</w>
tum n</w>
insp ection</w>
arbeit eten</w>
Vor sorge
Krank en
über mittelt</w>
umfangreich e</w>
territori alen</w>
geis tigen</w>
automati sch</w>
Z one</w>
Inter nationale</w>
Er leich
Ber g
Befür wor
Bedau ern</w>
An griffe</w>
zer land</w>
wer ks</w>
tou ch</w>
tackl ed</w>
pres sed</w>
mit ting</w>
des ired</w>
condi tional</w>
ak et</w>
Zu ver
Swit zerland</w>
Parla mentarier</w>
Ergän zung</w>
Bei behaltung</w>
Bar ón</w>
Ansch luss</w>
viel es</w>
mis sions</w>
inves tiert</w>
Weit erhin</w>
p lä
ho st</w>
gene tisch</w>
desig n</w>
com it
Veröffent lichung</w>
Dec ision</w>
15 .</w>
0 er</w>
vor an</w>
Einschrän kungen</w>
parti al</w>
gen es</w>
Di am
volum e</w>
verstän d
unter streicht</w>
sel ber</w>
kur zen</w>
d sch
Gi bt</w>
vorgeseh ene</w>
ow nership</w>
für chte</w>
f ate</w>
beträ gt</w>
An nex</w>
Über schwemm
verwirk licht</w>
kre di
k m</w>
horizon tal</w>
getro ffenen</w>
ab geordne
P A</w>
tr ü
Natur a</w>
AL DE-Fraktion</w>
üro s</w>
zu el
in equ
ge än
er tes</w>
atten d</w>
We g
Spra ch
Sol che</w>
Sicherheits rat</w>
Feder al</w>
schle chte</w>
gra de</w>
ger ingen</w>
acc used</w>
7 7</w>
tel ep
ne tz</w>
comprehen sible</w>
ati k</w>
Sol daten</w>
Eng land</w>
Dikt atur</w>
m ert</w>
cyc le</w>
Ratspräsiden tin</w>
NG L</w>
Lam y</w>
Beobach ter</w>
B om
ö hnung</w>
der eg
alit äten</w>
Iran ian</w>
Haushal te</w>
Gre mien</w>
wär tig</w>
tu ally</w>
tor ate</w>
stell ungs
recommend ed</w>
b at
advant aged</w>
Ver mei
Sum me</w>
M ü
0 2
w ns</w>
verwal tung</w>
ver wen
ver tie
sol e</w>
s cre
kost et</w>
intensi vi
ignor ieren</w>
far m</w>
en ced</w>
effizi enten</w>
Sü dafrika</w>
soldi ers</w>
schnell st
ra cies</w>
defic its</w>
aus sehen</w>
Stär ke</w>
zeit raum</w>
tä glichen</w>
repres sion</w>
gewi d
di verse</w>
coun ci
cor responding</w>
K un
Ex ek
Ausge wo
rec ru
re pli
inc redi
gesu cht</w>
ec o
bezo genen</w>
Haushalts mittel</w>
Aus wahl</w>
voranzu bringen</w>
t wi
peti tion</w>
m ut
la ying</w>
democrati sation</w>
besor gniserre
ar ische</w>
st an</w>
ru fe</w>
imm erhin</w>
el lit
dis tur
aufge griffen</w>
angeb oten</w>
Verbraucher politik</w>
ME D
Kl är
Inter ne
Empf än
Aus sprachen</w>
sk and
kriti sieren</w>
hil st</w>
ein gestellt</w>
differ enti
ban ken</w>
W hilst</w>
Schließ ung</w>
Mit te</w>
ME P</w>
B li
ver sammlung</w>
stam men</w>
sozi o
schaft sp
rigor ous</w>
car c
St ah
Konzent ration</w>
österreich ischen</w>
rel ative</w>
ow n-
la bel</w>
kom peten
glob aler</w>
U -
M illion</w>
zw in
th al
ob gleich</w>
in ju
fris tig</w>
che ap</w>
ange wiesen</w>
Glob alisation</w>
Defiz ite</w>
v is</w>
ko rea</w>
gere chten</w>
fahr zeuge</w>
deliver ed</w>
audiovis u
au tumn</w>
T ari
Recht setzung</w>
C u
la gerung</w>
einzi ges</w>
ein ges
Verantwor tungs
Gewin ne</w>
Gele genheiten</w>
zwangs läufig</w>
verstän dnis</w>
en ever</w>
den tally</w>
Schen gener</w>
Every one</w>
sol d</w>
mur der</w>
exemp tion</w>
ensu red</w>
bar bar
ann te</w>
adap ted</w>
Tali ban</w>
Sch ätz
L ernen</w>
Kin d</w>
AL E-Fraktion</w>
ähn lich</w>
ver wand
ous ness</w>
in o
dar y</w>
conc e
ausge übt</w>
Schi enen
P esti
G as</w>
neutra l</w>
frie di
enshr ined</w>
Tenden z</w>
Geb ühren</w>
Freit ag</w>
Ausgewo genheit</w>
tre ib
teu er</w>
lingu istic</w>
dr inglich</w>
dauer haften</w>
berechti gung</w>
S ak
Ferr er
pre judi
investig ate</w>
gesch eit
Speci al</w>
M ach
Lu ft</w>
Koordin ation</w>
Beob achtungs
AL E</w>
1 20</w>
fundament ally</w>
bestra ft</w>
beschle un
bek omm
Sch wan
tes ten</w>
techn ologischen</w>
recyc ling</w>
pres ents</w>
kriti sche</w>
fra gi
collap se</w>
So w
Innov ations
G ö
Bewer ber
ver ordnung</w>
monopo ly</w>
k is</w>
initi ated</w>
democrati cally</w>
consoli date</w>
bestre it
zi tiere</w>
ome ter</w>
food stuffs</w>
al ing</w>
W a
O li
sil ence</w>
it ze</w>
gesetz lichen</w>
fal schen</w>
endgül tig</w>
Zu gleich</w>
Verhin derung</w>
J acqu
sp lan
s ale</w>
ri g
no tion</w>
dauer hafte</w>
aus einander</w>
an schließend</w>
Ver mark
Stell enwert</w>
Hoffn ungen</w>
Gre at</w>
w on</w>
schlim mer</w>
b are
Mittel -</w>
Kop f</w>
Hin weise</w>
Amts zeit</w>
Aktions programm</w>
sur prise</w>
stor age</w>
sh ar
prot es
hom es</w>
attra ctive</w>
Vene zuel
Kur z
Gü ter</w>
Gesam theit</w>
Gegen wärtig</w>
Fol ter</w>
präz ise</w>
ig es</w>
c ell
bekann ten</w>
anges prochenen</w>
Spe k
Schi ffen</w>
Sch well
Reak tionen</w>
Har bour</w>
ECO F
Chem ik
C hile</w>
rin k
re perc
open ly</w>
mit geteilt</w>
epi dem
ein räumen</w>
bezieh e</w>
behin dert</w>
NG L
é s</w>
trans fers</w>
sicher er</w>
mean ing
be waffne
Par agrap
Blo ck
voranzu treiben</w>
ver zö
ehrgeizi ge</w>
b ün
T or
Kürz ungen</w>
Kön n
Hil f
5 9</w>
- Ru
offizi ell</w>
k el</w>
grün dlich</w>
Zus agen</w>
Rahmen besch
Prof essor</w>
Pres tige</w>
O omen
Lie fer
teil zunehmen</w>
Straft aten</w>
Jacqu es</w>
G AS
Freil assung</w>
produc er</w>
l y-
kon vention</w>
inspec tions</w>
gering er</w>
con ten
che ap
angemessen er</w>
air port</w>
Wald ner</w>
präsen tiert</w>
pen sion
k ommission</w>
glei cher</w>
gesch afft</w>
fal se</w>
etz ung</w>
Vertra g
Vermei dung</w>
Res ul
Lan ka</w>
Ö l</w>
tig keits
reperc ussions</w>
en abled</w>
R est</w>
Leh ne</w>
Erwä gungen</w>
Erd be
stra ight</w>
fehl ende</w>
euro s</w>
auf gehoben</w>
Mex ico</w>
Gefän gnis</w>
respon ses</w>
p ace</w>
h o</w>
gu lierung</w>
angeb lich</w>
Zul assung</w>
Mo sco
Fle isch</w>
Bis her</w>
Allgem eine</w>
peri pher
inev itably</w>
hö her
gro und
S A</w>
win dung</w>
vertre te</w>
ver li
tari ff</w>
systemati sch</w>
st ran
qu oten</w>
o v</w>
h a</w>
ge wer
erläu tert</w>
assess ed</w>
Lin ken</w>
where ver</w>
s ity</w>
n ut
je glicher</w>
gerich tete</w>
dis advantaged</w>
auf gebaut</w>
Ereig nissen</w>
Arbeits zeit</w>
z .
statt dessen</w>
reib ung</w>
r unde</w>
li ke
ge ehrten</w>
Besch luss
Bed ingung</w>
hervor zu
ge- scale</w>
discip line</w>
ag er</w>
Ver brech
Schul den
Asyl bewer
Über windung</w>
particip ants</w>
beeinträchti gen</w>
P S</w>
Krie ges</w>
ti tle</w>
pro liferation</w>
p iel
nis ses</w>
müß ten</w>
lit ten</w>
compon ent</w>
c a.</w>
bru tal</w>
al d</w>
Th ess
R ob
Parla ment
Anmerk ung</w>
statisti cal</w>
on to</w>
lin ing</w>
ex posed</w>
assu red</w>
Partner schaften</w>
K riterium</w>
Im ple
Haft befeh
Gemeinschaft sin
Bio kraft
Arbeits kräfte</w>
7 8</w>
transfer red</w>
resp o</w>
pro stitution</w>
origin ally</w>
f r
defini tive</w>
besonder es</w>
UN O-
Oomen -Ru
C respo</w>
wei ch
remo val</w>
isl ands</w>
inequ alities</w>
get ö
fin dings</w>
appro ach
v e-
internation ally</w>
ehrgeizi gen</w>
dri ven</w>
constitu ency</w>
Vizeprä sidentin</w>
wachsen de</w>
research ers</w>
poli zei
gesch le
dar gestellt</w>
cul tiv
anzu erkennen</w>
Z wei</w>
Privat sphäre</w>
sus pi
spec tive</w>
smo king</w>
pas sieren</w>
objec tions</w>
ck ets</w>
bürger liche</w>
be weist</w>
Ost see</w>
Op posi
wissen s
quar ters</w>
fore stry</w>
detri ment</w>
bi tion</w>
ab zustimmen</w>
Kom ment
Govern ance</w>
For st
Dies en</w>
Be weise</w>
8 6</w>
vol les</w>
bewe gt</w>
Generalsekre tär</w>
Cy pri
ähn lichen</w>
twi ce</w>
läu fi
konkre ter</w>
inno cent</w>
ij ten</w>
hol ders</w>
her stellen</w>
ff ene</w>
ab u
Wort laut</w>
Ver urteilung</w>
Nahrungs mittel</w>
NGL -Fraktion</w>
Herzego win
13 .</w>
un um
th qu
presiden tial</w>
pi ed</w>
appel lieren</w>
ap p</w>
Wieder ein
z. B.</w>
sta b</w>
multi annual</w>
lo gic</w>
f at
ein gebunden</w>
c e-
ben utzen</w>
be vorzu
Rück sch
Op tionen</w>
Ferrer o-
ru ft</w>
me l</w>
li felong</w>
f in</w>
de va
abzu schließen</w>
Thess alon
So wohl</w>
Assoziierungs abkommen</w>
ve aus</w>
ul l</w>
ti en</w>
sch ön
li ter
gesetz gebung</w>
forder ten</w>
er rors</w>
di agno
bi ologischen</w>
aus gestattet</w>
auf gestellt</w>
T -
Slowen ien</w>
Bo den
Anrei z</w>
poten tially</w>
pl än
occ urr
kn app
fizi erungs
Nachtei l</w>
Einstimm igkeit</w>
A kti
6 1</w>
prepar atory</w>
posi tives</w>
p ill
in her
glau bt</w>
ent s
demon stra
compar able</w>
ME DA</w>
Alger ia</w>
wis hed</w>
um gehend</w>
soci ally</w>
our ing</w>
min ds</w>
k ette</w>
g ast
fe ature</w>
co al</w>
basi eren</w>
arbit r
Verb ün
St ehende</w>
Four thly</w>
verbin dlich</w>
ro utes</w>
läß lich</w>
ik i</w>
geh in
don ors</w>
ar ticles</w>
Wes ten</w>
Or gan</w>
Mitglieds länder</w>
Kon su
Ferrero- Waldner</w>
Com pu
Brut to
verschär ft</w>
n erst
explo it</w>
assess ing</w>
Z ins
wi dri
st ag
inter ference</w>
des per
camp s</w>
ap plau
Vi enn
Ih res</w>
sim pl
re volution</w>
ge braucht</w>
elli te</w>
alo g</w>
Produ zenten</w>
P ack</w>
Lat via</w>
Er neu
17 .</w>
trav elling</w>
prac tically</w>
inter n
haf ter</w>
automati cally</w>
Erzeu gnissen</w>
B lack</w>
uneingeschrän kte</w>
stric ter</w>
refer ences</w>
ge äußer
au l
Gesicht spunkt</w>
Fra ktions
ta pe</w>
mittler weile</w>
hin nehmen</w>
er richten</w>
enter prise</w>
constra ints</w>
c ating</w>
ab kommens</w>
Umwelt politik</w>
re cip
in ated</w>
an gen</w>
am t</w>
Verstöß e</w>
Rahmen richtlinie</w>
Co sta</w>
vereinbar ten</w>
stei gern</w>
produ kten</w>
ge kürz
ei ved</w>
ec k
ber ühr
We b
Sol ange</w>
Herb st</w>
weis ungen</w>
systemati cally</w>
ser ves</w>
ir respective</w>
gesch ä
besch rieben</w>
Integr ität</w>
Her z
Eigent um</w>
wholehear tedly</w>
ob ject</w>
lau b</w>
dis abilities</w>
ban an
ar ma
agi eren</w>
T em
EV P-
la den</w>
kn app</w>
hi elten</w>
harmon ise</w>
bilater ale</w>
an führen</w>
Wort mel
Kur dish</w>
Er be</w>
zu künftig</w>
wünsch te</w>
st unde</w>
sein erzeit</w>
gewid met</w>
floo ds</w>
co inci
b la
ab schließen</w>
Wiederauf nahme</w>
Recht sprechung</w>
Den ken</w>
Über sch
wa i
under ing</w>
schedul ed</w>
ost europäischen</w>
ear thqu
character ised</w>
T EN
Liber ties</w>
Bö ge</w>
B angem
Ab gesehen</w>
obstac le</w>
j et
ges unden</w>
ein setzt</w>
beruf liche</w>
Russ lands</w>
Oomen-Ru ijten</w>
Haushalts ausschuss</w>
Evalu ierung</w>
wi es
vor be
to m</w>
ständi ger</w>
sch ar
erst mals</w>
conc essions</w>
Zuwander ung</w>
St rom
Pesti zi
P akt</w>
Kon servativen</w>
Einwander ungspolitik</w>
7 00</w>
5 -
we ek
sh oul
r t</w>
besch ei
adver se</w>
Stra fre
Investitions bank</w>
Berat ung</w>
öpf en</w>
war m</w>
sel ten</w>
s we
princip al</w>
Nu klear
M as
8 7</w>
vorsch rift</w>
own- initiative</w>
estim ates</w>
compli ed</w>
Vienn a</w>
Herzego vina</w>
EU- Bürger</w>
äl teren</w>
reti rement</w>
porno graph
demand ed</w>
deci ding</w>
bereit stellen</w>
ben ch
adjust ment</w>
Vertre terin</w>
Verk auf</w>
Rechnung shofs</w>
K au
Überein kunft</w>
ref us
gesund heits
f rank
Haushalts linie</w>
GM O</w>
Dar auf</w>
A5-0 2
sho fes</w>
lo u</w>
i -
gebühr en</w>
g ases</w>
aus gelöst</w>
Thessalon iki</w>
Be träge</w>
über denken</w>
er langen</w>
b ran
ad her
Pflan zen
M ari
Kon solidierung</w>
Gesetz geber</w>
A5-0 3
voc ational</w>
und i</w>
tan e
hör t</w>
de ck
brau chs</w>
ar m</w>
ab sor
K urs</w>
z á
wer ken</w>
unterschied licher</w>
ra ce</w>
orient ation</w>
abzu geben</w>
B yr
3 1.</w>
techn i
lar ge-scale</w>
facilit y</w>
bra chte</w>
Unterneh mer</w>
Ben dit</w>
r het
in struc
critic isms</w>
Woh ler
Substan zen</w>
Co de</w>
tre mend
trans position</w>
to wn</w>
sa h</w>
ar rest
Perspek tiven</w>
Kür zung</w>
Gemeinschafts rechts</w>
guil ty</w>
ges onder
bean tragen</w>
Reser ve</w>
ph ra
pa ir</w>
offi c
min ent</w>
high- quality</w>
gegensei tig</w>
flexi bel</w>
Mehrwert steuer
D re
ä ter</w>
thorough ly</w>
spar en</w>
ol l</w>
es si
en em
ban k
S har
P N
K örper
Finanz rahmen</w>
ursprün gliche</w>
ten ing</w>
tatsäch liche</w>
frü h</w>
estim ate</w>
er innen</w>
comit ology</w>
b ases</w>
anspru chs
Wettbewerbs politik</w>
N um
Mad eira</w>
Bangem ann</w>
verteidi gt</w>
rec orded</w>
rah men
poli es</w>
mit glieder</w>
exper t</w>
ermächti gungen</w>
appoin ting</w>
ag u
Feder ation</w>
F eu
Da y</w>
Abän derungs
12 .</w>
è s</w>
t elling</w>
sozi al</w>
sch mer
lei det</w>
effizi enter
ation sabkommen</w>
Zur ück
Sig n
M igranten</w>
th ens</w>
pill ars</w>
it es</w>
c lon
be gan
W ein</w>
R enten</w>
vis ions</w>
pol nischen</w>
ma il</w>
kenn t</w>
gran ts</w>
ab stimmung</w>
S ci
Isra els</w>
wor ried</w>
rein forced</w>
h ion</w>
chen e</w>
b acks</w>
Wün sche</w>
Herzegowin a</w>
verk ün
inn eren</w>
fäl sch
foot ball</w>
civili ans</w>
Vor gaben</w>
R üst
Kon go</w>
Coh n-
Be wirtschaftung</w>
wel le</w>
vorsch lags</w>
tektion ismus</w>
qualifizi erte</w>
or gt</w>
drafts man</w>
En des</w>
CF SP</w>
Al z
zurück kehren</w>
pro -
plan et</w>
in toler
ges orgt</w>
clos ing</w>
ater ie</w>
appreci ation</w>
Ge wässern</w>
survi val</w>
schle chten</w>
reit en</w>
critic ised</w>
aus reichen</w>
Sicher stellung</w>
Proz ent
Meinungs freiheit</w>
Jer usalem</w>
0 5</w>
in appropriate</w>
discrimin atory</w>
be fin
arran gement</w>
Leit ung</w>
Konsult ationen</w>
Con go</w>
hän d
a den
Wäl der</w>
Mal m
Leist ungs
Cohn- Bendit</w>
A mon
6 4</w>
streng ere</w>
stopp ed</w>
nor th</w>
conven i
behin dern</w>
Temp o</w>
Pre isen</w>
Erkenn tnisse</w>
Chr isten</w>
Anti -
sa al</w>
le is
har dt</w>
glich keit</w>
fer tig</w>
den oun
dead lines</w>
app alling</w>
ad or</w>
R om</w>
Friedens prozess</w>
Dringlich keits
un it</w>
mot or
A c
Änderungs vorschläge</w>
top ical</w>
sicher heits
pass ing</w>
coordin ating</w>
as h</w>
Ber lus
Alz hei
sensib len</w>
organiz ation</w>
ond s
gewäh lte</w>
gel ernt</w>
ent schie
charac ter</w>
an sonsten</w>
zu ständige</w>
los er</w>
fest gehalten</w>
benachteili gten</w>
aus ger
a ke</w>
Vermitt lung</w>
Men gen</w>
Jo sé</w>
Energi et
Augen merk</w>
zu zustimmen</w>
wei chen</w>
verli ehen</w>
hr en</w>
St ad
Guine a</w>
Er reichen</w>
Bei de</w>
su res</w>
sou verän
sin n</w>
ser ved</w>
resp ec
regis tered</w>
mor atorium</w>
mat ure</w>
ha ft
be faßt</w>
8 8</w>
über flüssi
subjec ted</w>
rum än
mö ge</w>
moder ne</w>
hin reich
ga u</w>
ern sten</w>
erhö h
engagi ert</w>
N iel
st amm
refus al</w>
ger inge</w>
ehemali ge</w>
ab hängen</w>
N ation</w>
Bevölkerungs gruppen</w>
verbin den</w>
remain ed</w>
relie f</w>
pre di
nah men
in direct</w>
for war
dec entr
Zweit en</w>
M ei
Bem ühen</w>
s m</w>
protection ism</w>
occu pied</w>
in- depth</w>
fi ll</w>
Sch on</w>
Ins gesamt</w>
Finanz märkte</w>
Byr ne</w>
Best ände</w>
pharmaceu tical</w>
Vor mittag</w>
Gedan ke</w>
7 6</w>
kurzfris tig</w>
geleis tete</w>
de licate</w>
bet ru
adap tation</w>
Zus ätz
W ie
Verfassungs vertrag</w>
H änden</w>
Er öffnung</w>
Er mitt
An laß</w>
ser klärung</w>
sek tor
ing er</w>
gi ge</w>
formu lieren</w>
arab ischen</w>
Rich ter</w>
Mc Car
L ul
Defiz it</w>
punis hment</w>
lan des</w>
gra ve</w>
divi de</w>
demon stration</w>
chann els</w>
a ge
Wahl kreis</w>
we ge</w>
vor sehen</w>
von einander</w>
schö n</w>
schreck lichen</w>
offenkun dig</w>
neh mer
harmon is
gi r
Rindfle isch</w>
Amster dam
30 .</w>
veran lassen</w>
re tten</w>
nachhal tig</w>
korrigi eren</w>
hin nehmbar</w>
form ally</w>
ern ity</w>
auf richtig</w>
Stand or
Ein wohner</w>
Alger ien</w>
schie ben</w>
medic inal</w>
de fi
Sh ould</w>
Aut or
re viewed</w>
bed ür
b lat
Un fälle</w>
Toler anz</w>
Sow jet
Lob by
K a
vertr aut</w>
ultim ate</w>
top ics</w>
to wns</w>
re turned</w>
medizin ische</w>
ma kers</w>
less on</w>
k ische</w>
ide ological</w>
Fir men</w>
D A
stec kt</w>
re z</w>
l assungen</w>
kon solidi
inci dents</w>
ig ungen</w>
gew inn
g ter</w>
com position</w>
b and</w>
angenommen e</w>
Konjun ktur
sol ving</w>
ich tet</w>
h unger</w>
eh men</w>
dec ade</w>
Thir d</w>
N eben
Mex iko</w>
In stan
to s</w>
se at</w>
produ zieren</w>
moral ische</w>
fi able</w>
ex isti
contradi ction</w>
ab ges
Roman ian</w>
R -Fraktion</w>
F es
Befür chtungen</w>
8 00</w>
über wie
vor gestellt</w>
vic tory</w>
un lau
diplom atischen</w>
ch erung</w>
bewe gung</w>
Straßen verkehr</w>
R ehn</w>
R ats</w>
Bedau er
s li
dis sem
dau ert</w>
bro adly</w>
WW U</w>
M äd
L IF
Gro ßen</w>
Arbeitslo sen
zentr en</w>
vor sichtig</w>
fer tigung</w>
er sucht</w>
c -
ar ises</w>
Klär ung</w>
Joh n</w>
G on
C at
Ander e</w>
Ab lauf</w>
. 5</w>
wes ens</w>
ta ine</w>
stimul ate</w>
promis ing</w>
interpre ted</w>
he f
h one</w>
en gen</w>
Se e
G AT
Ein igkeit</w>
Ein gliederung</w>
öl le</w>
with drawn</w>
ver mis
schrift liche</w>
mo ther</w>
exclu de</w>
aus machen</w>
Zuständi gkeits
Handels politik</w>
H ague</w>
B lut
6 9</w>
üß en</w>
vor haben</w>
se es</w>
realis ed</w>
ob liegt</w>
nach kommen</w>
Aktionsp lans</w>
zeichne ten</w>
verän der
spartn er
priv atis
k ä
fein dlichkeit</w>
Besonder heiten</w>
Asi an</w>
Ak tu
remin ded</w>
per secution</w>
län en</w>
gener ous</w>
aband on</w>
Unterneh mer
Lebens bedingungen</w>
K ün
Drit ten</w>
8 1</w>
wor auf</w>
unter nimmt</w>
ten ed</w>
s cri
ra n</w>
gestri gen</w>
du al</w>
consci ence</w>
atmo sphere</w>
an dem</w>
allmäh lich</w>
S eine</w>
M ilitä
Luft fahrt
CO2- Emissionen</w>
under p
tr ends</w>
to ck</w>
remark able</w>
he avi
hand ed</w>
ges etz</w>
es c
con tributes</w>
Kon g</w>
Fuß b
Fre und</w>
Ak zep
recht zu
poin ting</w>
grundle gend</w>
gesch enkt</w>
fizi eren</w>
ell a</w>
bio fuels</w>
a y</w>
Weiter bildung</w>
Techn ik</w>
Stu fe</w>
Sozial fonds</w>
H ong</w>
An hän
vor gelegte</w>
viel falt</w>
t ful</w>
sy ner
pro secut
on ing</w>
konstitution elle</w>
ges tiegen</w>
corpor ate</w>
audiovis ual</w>
Regis tri
Pi lot
Millenni um
H ü
Chin as</w>
0 2</w>
ves tock</w>
sub -
ga ining</w>
g ut
fac es</w>
Schlüs sel</w>
Informations -</w>
A O</w>
8 2</w>
re e</w>
kämpf t</w>
griech ische</w>
entzi eht</w>
enn bar</w>
differ ently</w>
b onds</w>
atta ch</w>
OSZ E</w>
L eu
Indones ia</w>
l ant</w>
do ors</w>
clari fied</w>
Re t
Pro tektionismus</w>
Mitgliedsta ats</w>
H is</w>
Auff assungen</w>
ter ror</w>
spec ulation</w>
so genannte</w>
n on
getö tet</w>
c tic</w>
Zwei fel
Th an
O der</w>
Kontin ents</w>
ASEA N</w>
verk aufen</w>
our e</w>
h am
erk ennt</w>
benefici aries</w>
addres ses</w>
In halte</w>
tur ns</w>
p ru
näch st</w>
immen se</w>
ens es</w>
den ted</w>
ap s</w>
ange passt</w>
ad ed</w>
Eco fin</w>
Christi ans</w>
vis ing</w>
tnis sen</w>
ra c</w>
gül tig</w>
ch ie
b un
Vor beu
Bestre bungen</w>
Best ä
Berich tig
ta lity</w>
bei der</w>
auf hören</w>
and au
alar ming</w>
Infl ation</w>
Funktion sweise</w>
Berlus coni</w>
z eln</w>
vers prochen</w>
schle chter</w>
ran ken</w>
lin ge</w>
hol ds</w>
gefähr licher</w>
exac erb
erzeu gnisse</w>
di men
I vo
Er schein
14 .</w>
über nimmt</w>
ob taining</w>
ak is</w>
T ag
Grund satzes</w>
Al le
än derung</w>
Überschwemm ungen</w>
wah l
te ure</w>
re mark</w>
equi vo
di ffer</w>
col on
ci liation</w>
arrest ed</w>
an gehört</w>
Mehrwert steuer</w>
F alls</w>
Enttäu schung</w>
Ein sparungen</w>
Ein mischung</w>
Demokrati schen</w>
Beitritts länder</w>
Be grenzung</w>
A ga
ul f</w>
tes ted</w>
sch wäch
norm ally</w>
multination alen</w>
li erungen</w>
indic ates</w>
gest anden</w>
every day</w>
erneuer barer</w>
emphas ises</w>
dis tan
dau er</w>
avoi ding</w>
arch it
Ziel vor
Welt bank</w>
Konvergen z
Gemein den</w>
Fischereis ektor</w>
Ein leitung</w>
Beru f</w>
un prece
teil te</w>
natür liche</w>
V el
Qu elle</w>
K unden</w>
Hinder nis</w>
B ün
verk auft</w>
stütz t</w>
re sts</w>
mid dle</w>
gener ated</w>
el f</w>
arti fi
ar m
Verfas ser
Them as</w>
Solidaritäts fonds</w>
C auc
Be frei
Angol a</w>
ü cke</w>
transpar enter</w>
prior iti
govern ed</w>
ent al</w>
T ests</w>
Kom pon
Ge geben
Er de</w>
25 .</w>
í n</w>
prohi b
gu tem</w>
comple x
bezo gene</w>
IN I</w>
Gö te
gem el
besser es</w>
7 2</w>
üh ne</w>
y e</w>
widerspie geln</w>
th ou
sustain ed</w>
persu ade</w>
con fin
aus gehend</w>
Unterneh mens</w>
Qu ellen</w>
Emis sion
Democ racy</w>
Arbeits programm</w>
se ite</w>
re si
our -
igran t</w>
ari ous</w>
allgem einem</w>
ab schließ
Göte bor
Ge fähr
F at
si ed
dispens able</w>
bie ter</w>
bekomm t</w>
am i</w>
Zus age</w>
Wo gau</w>
Invest oren</w>
sec toral</w>
s un
on n
es -
ber ichte</w>
Wachst ums</w>
schwer er</w>
mono polies</w>
mentari ans</w>
li vestock</w>
au st
ange führt</w>
ac qui
Universit äten</w>
Schu le</w>
Mitarbeit ern</w>
Darle hen</w>
tun a</w>
sat ellite</w>
l assung</w>
inci dent</w>
in comes</w>
hervorzu heben</w>
gla des
er eig
ec kt</w>
be acht
auf greifen</w>
any where</w>
zu gs
wi es</w>
vertra gs</w>
unprece dented</w>
qui ck</w>
n ör
k tik
geno cide</w>
ersch üt
berich tet</w>
auf gerufen</w>
S up
Ein erseits</w>
Dienst es</w>
Be en
wa ke</w>
voran kommen</w>
spar teien</w>
ro ot</w>
lan der</w>
eu v
erreich ten</w>
c ells</w>
a det</w>
war tet</w>
w unsch</w>
teil ten</w>
stres ses</w>
pra ise</w>
man o
m outh</w>
komplizi erten</w>
integri ert</w>
erle gt</w>
berühr t</w>
berat enden</w>
Stab ilisierung</w>
GAS P</w>
zivi len</w>
trans lation</w>
präsen tieren</w>
koordin iert</w>
f ische</w>
debat tieren</w>
cons ists</w>
befu gnisse</w>
beein dru
Sy ner
St ur
Geltungs bereich</w>
Er halt</w>
Bon ino</w>
Ban glades
wäch st</w>
w- how</w>
vorzu bereiten</w>
sch au
pro jekt</w>
integri eren</w>
auszu arbeiten</w>
Rechts vorschrift</w>
Eurat om</w>
C ô
Ale x
ver nehmen</w>
ung laub
pfli cht</w>
kti ver</w>
gen tin
ent es</w>
d ged</w>
audi t</w>
B our
21 st</w>
zer o</w>
prerequis ite</w>
in dispensable</w>
explo ited</w>
Malm ström</w>
E E
verbreit et</w>
self- employed</w>
mano euv
in stability</w>
ilis ierungs
foot ing</w>
auf rechtzu
ak tiver</w>
ad ding</w>
Ve terin
H ong
zu fügen</w>
schein end</w>
quanti ty</w>
gerech net</w>
enthusias m</w>
antwor tung</w>
S ever
Ober grenze</w>
Hong kon
y iel
wh enever</w>
russ ische</w>
pesti cides</w>
mis sed</w>
heavi ly</w>
for d</w>
democ racies</w>
begrenz ten</w>
bedeut end</w>
an cies</w>
abol ished</w>
Rück über
Be zeichnung</w>
witn essed</w>
vi erung</w>
stri kes</w>
ris en</w>
re mit</w>
person en</w>
mis sible</w>
invest ing</w>
fo ods</w>
ens werte</w>
Gesundheits versorgung</w>
Been digung</w>
Amsterdam er</w>
stell ten</w>
re verse</w>
leist ungs
jah re
engagi eren</w>
concep ts</w>
a qu
Territori um</w>
Gen der</w>
öpf t</w>
wor t</w>
thin ks</w>
problemati sch</w>
low est</w>
integra l</w>
enjo yed</w>
befür chten</w>
aufrechtzu erhalten</w>
ander s
Mon it
Alkoh ol
lin er</w>
illeg aler</w>
füh le</w>
f tung</w>
S L</w>
Elek tri
Ber e
pat ents</w>
geben den</w>
Sah ara</w>
Reg ul
Nei ghbour
Klau sel</w>
Autonom ie</w>
Auseinander setzung</w>
ter er</w>
pati ent</w>
inst all
inform ellen</w>
gene tic</w>
fas hion</w>
du s</w>
cle an
E ta
Democr at</w>
zu kommt</w>
we b
vor bereiten</w>
it als</w>
cre ative</w>
bel s</w>
Um stellung</w>
Throu gh</w>
Sek re
Mehr heits
G N
threaten ing</w>
Politik bereiche</w>
Par ti
Be züglich</w>
ungs weise</w>
schwei gen</w>
off ences</w>
irgend einer</w>
interven tions</w>
facilit ating</w>
dre am</w>
M ül
Ivo ire</w>
är m</w>
remo ving</w>
ow ners</w>
kap ital</w>
fo ster</w>
empfoh len</w>
emp ty</w>
Mäd chen</w>
Ev ans</w>
Auf lagen</w>
ver mittelt</w>
und ed</w>
stand s
stan des</w>
se ment</w>
kom bin
he utzutage</w>
critic ise</w>
belie ved</w>
ban ana</w>
avail ability</w>
ass embly</w>
Schot tland</w>
Est land</w>
Cô te</w>
Ausgleich s
re gen</w>
moder n
letz tes</w>
isol ation</w>
ig ten</w>
exp enses</w>
end t</w>
ein zuräumen</w>
dispar ities</w>
Telekommunik ations
Sp itz
Hauptz iel</w>
Deta il</w>
Akte uren</w>
xen ophobia</w>
wär tigen</w>
verantwor tung</w>
tr aum</w>
lo cation</w>
inter institutionellen</w>
einschlä gigen</w>
e e</w>
Be antwortung</w>
weiter gehen</w>
un like</w>
sh am
posi tiver</w>
frü h
f on
ein gebrachten</w>
acc us
Ver schlech
Som alia</w>
PHAR E</w>
O ost
N ep
wonder ful</w>
unabding bar</w>
sch war
mo ves</w>
geb ro
ge zahlt</w>
fizi ert</w>
ch ron
b oun
Stra fen</w>
Con c
C ash
wünsch ten</w>
ver träge</w>
tent ei
offizi elle</w>
fli ght</w>
entzi ehen</w>
e ase</w>
attemp ting</w>
Verschlech terung</w>
Religions freiheit</w>
Kol um
um b
qualit ative</w>
prinzi pien</w>
ausge de
2 ,
wei gh
s sen
nut ri
la ys</w>
ir responsible</w>
inev itable</w>
M ah
Co x</w>
un equivo
tief ung</w>
ten de</w>
sicht bar</w>
opp on
gi ene</w>
di gten</w>
bis weilen</w>
Davi d</w>
A 6-0
einzi gar
descri be</w>
Presse freiheit</w>
Paragrap h</w>
Da ß</w>
Är z
war s</w>
satis fy</w>
lic ences</w>
illeg ally</w>
dis gra
beschäf tigungs
ber au
beg leitet</w>
Ter min</w>
Fon taine</w>
Auf klärung</w>
16 .</w>
strukturel len</w>
ermu ti
ambigu ous</w>
Sozial ver
Schre yer</w>
Olymp ic</w>
Niel son</w>
Mitglieds ländern</w>
Fisch bestände</w>
Con gress</w>
Auf teilung</w>
wettbewerbs fähig</w>
sk ep
sch aden</w>
recognis ing</w>
men den</w>
konstru ktiv</w>
ear marked</w>
combin ation</w>
St ar
Schattenberichterstat tern</w>
A part</w>
wen de</w>
verän derten</w>
sto red</w>
relation ships</w>
it y-
dem nächst</w>
countr y
Ver tiefung</w>
Mono po
Ministerprä sidenten</w>
Demokrati en</w>
D G</w>
poten ti
mo dest</w>
fre e
asp ira
Sie g</w>
In sel
Europä ern</w>
verm ut
IM F</w>
18 .</w>
pre is
l end</w>
isol ated</w>
dero g
T aus
Let tland</w>
H ände</w>
Gan zen</w>
wor th
no -
jah res
er end</w>
ensu res</w>
dat ab
aus gesch
Wo chen
Ukra in
gesell schaftliche</w>
don or</w>
destab il
abol ish</w>
Secre tary</w>
Schwer punkte</w>
Präsidentschaf ts
Ereig nis</w>
CO S</w>
Arznei mitteln</w>
u ts</w>
indire kt</w>
gewal tige</w>
ge faßt</w>
fan gs</w>
cau ght</w>
c attle</w>
Z ut
TAC IS</w>
Qu ite</w>
N ic
Frei willi
ör t</w>
vor ausgesetzt</w>
ste el</w>
pro found</w>
poor er</w>
men tierung</w>
klein eren</w>
geschi ckt</w>
com pl
beit ritts
Ti bet
ä chti
work force</w>
win d</w>
up hold</w>
so hne</w>
regis tri
fea sible</w>
de hnen</w>
Tren nung</w>
s ly</w>
limit ing</w>
lich ere</w>
gekürz t</w>
beizu behalten</w>
bedür fen</w>
an o
advan ces</w>
W HO</w>
Versch mutzung</w>
Fron t</w>
Fre edoms</w>
Elektri z
Aus maß
re ak
prece dent</w>
philosoph y</w>
ges unde</w>
empha size</w>
besch ä
Meinungs verschieden
Glück wunsch</w>
Auf sicht</w>
qu ellen</w>
manufac turing</w>
integr ating</w>
hand led</w>
frank ly</w>
com men
be merken</w>
ac compl
Wettbewerbs verzerr
T rau
Rom a-
Luft verkehrs
Grenz werte</w>
Extre mis
Artik els</w>
sicher ungen</w>
re ale</w>
mess ages</w>
me ist</w>
ko oper
ein halb</w>
aufge zeigt</w>
ar ance</w>
aff air</w>
Völk ermor
Erleich terung</w>
regul ating</w>
prof it
hin ausgehen</w>
er kt</w>
en a</w>
emer ge</w>
aspira tions</w>
K en
weit et</w>
unan nehmbar</w>
t ung
m ischen</w>
kenn tnis</w>
jem als</w>
ff ers</w>
ener gie
e able</w>
du ly</w>
be achtet</w>
ar en</w>
ak ts</w>
Verlu ste</w>
pat ri
har ma
gui ded</w>
gra titude</w>
condem nation</w>
con vic
begrenz te</w>
Op tim
Mitentscheidungs verfahren</w>
Is lands</w>
H at</w>
Freihandel s
Finanzi er
Erneu erung</w>
Be trü
thir dly</w>
t am
stabil en</w>
schmer z
europ as</w>
berechti gte</w>
auf gaben</w>
Wohler gehen</w>
R und
Außen beziehungen</w>
An d
so ft</w>
sab kommens</w>
re ll</w>
on line</w>
men gen</w>
in equality</w>
en force</w>
civi lisation</w>
as us</w>
Sar ko
Haushalts verfahren</w>
Angehö rigen</w>
sprü ch
pi peline</w>
or i</w>
len dung</w>
dau ern</w>
Föder ation</w>
Aut os</w>
7 3</w>
ürz t</w>
ver setzen</w>
sec uring</w>
quanti tative</w>
partn ern</w>
integri erte</w>
fru cht
claim ed</w>
announ cement</w>
Venezuel a</w>
Mul der</w>
Konkurr enz</w>
Gesundheits wesen</w>
Gesch windi
C olo
üb lichen</w>
work place</w>
stri ve</w>
public ly</w>
parlia mentarians</w>
mid- term</w>
ließ t</w>
lic ence</w>
judi ci
j ed
g are
drin gende</w>
Unter sch
I W
Einkommen s
Bei hilfe</w>
wech sel</w>
tan o</w>
sch end</w>
s k</w>
inter -
il -
e z</w>
confir ms</w>
Ko finanzierung</w>
IL O</w>
Fremden feindlichkeit</w>
si mul
k am
jun ction</w>
gen ous</w>
fe els</w>
em or
bro ken</w>
Se vil
Se el
kno wled
gest ehen</w>
Un til</w>
Sp itze</w>
L e</w>
Emission sh
Cauc asus</w>
y right</w>
re alen</w>
har te</w>
f lich</w>
bur dens</w>
Roth ley</w>
Ro bert</w>
Plenar saal</w>
Beru f
Akzep tan
7 4</w>
un vermei
tab ling</w>
rhet or
promot es</w>
l o</w>
j unger</w>
hoch rangi
erst es</w>
er zeugung</w>
Nach richt</w>
IN D</w>
E ach</w>
Do ssier</w>
Barro t</w>
- and-
wert volle</w>
sh ame</w>
postpon ed</w>
ordnungsgemä ße</w>
multin ational</w>
industri ellen</w>
dre w</w>
aller erst</w>
Red ner
Neighbour hood</w>
Dien sten</w>
Auf trags
ri tik
pun ished</w>
just ment</w>
ima gin
id sch
hör e</w>
berei chs</w>
Musli m</w>
Aussch uss
zusammen gearbeitet</w>
ratifizi eren</w>
ment ing</w>
ma che</w>
j ing</w>
expres sly</w>
ener gies</w>
ange gangen</w>
Impul se</w>
Daten schutz</w>
Con ciliation</w>
Ara fat</w>
Administra tion</w>
8 3</w>
äl tere</w>
survi ve</w>
ssi ers</w>
iti gkeiten</w>
ga ther
g tu
empfeh le</w>
defi ci
aushal tsp
accoun table</w>
Vor bild</w>
Vermittlungs verfahren</w>
Heim at</w>
Finanz -</w>
Car di
Besch lusses</w>
kommerzi ellen</w>
gleich ung</w>
dis advantage</w>
be am
Viel mehr</w>
St reichung</w>
So weit</w>
P h
N either</w>
Ges tern</w>
war ming</w>
vermut lich</w>
th ei
pla yer</w>
ologi en</w>
multination als</w>
in directly</w>
ar tigen</w>
Richtlinien vorschlag</w>
Red nern</w>
Inter pre
Freihandel sabkommen</w>
weit em</w>
tremend ous</w>
t ale</w>
suspi ci
speci fied</w>
gtu ung</w>
Sozial -</w>
Ost se
Götebor g</w>
Genu gtuung</w>
Fra gestell
vor bereit
nied rigen</w>
ma ybe</w>
inter oper
conclu ding</w>
ausge drückt</w>
Automobil industrie</w>
v ague</w>
urop a</w>
sinstru ment</w>
schlimm sten</w>
problemati c</w>
eh n
dis placed</w>
UC LAF</w>
Than ks</w>
Materi al</w>
übri g</w>
wahr e</w>
verbin dlichen</w>
qu o</w>
n esty</w>
le ben
haf tet</w>
c ommission
Mandel son</w>
Hab en</w>
Gon zá
Chi rac</w>
Bei jing</w>
weak nesses</w>
r are</w>
pragmati c</w>
on er</w>
la undering</w>
fol gendes</w>
foc uses</w>
f ault</w>
abor tion</w>
Terrorismus bekämpfung</w>
Ky i</w>
J ord
Gegeben heiten</w>
Era smus</w>
verfüg bar</w>
tra ce
rück en</w>
requ iring</w>
nu klear
Wachstumsp akt</w>
Oost lander</w>
Mü he</w>
Gesam th
Aga inst</w>
war rant</w>
veran las
verabschie deten</w>
trag ischen</w>
sign als</w>
fre ier</w>
banan as</w>
T ob
Su u</w>
Pe ace</w>
D ere
Besch lüssen</w>
äl ter</w>
verwei gert</w>
um ul
s wit
privatis ation</w>
ken ne</w>
irgend wo</w>
ir a</w>
h at
ek e
back ed</w>
b lichen</w>
auf erlegt</w>
S ier
Rei cht
K il
üb lich</w>
ör tlichen</w>
trans national</w>
radio active</w>
prefer red</w>
pen ding</w>
kehr ungen</w>
f ließen</w>
ein leiten</w>
begr enzen</w>
Vol lendung</w>
Vis a</w>
Ver hütung</w>
Entschei d
E l</w>
A ri
widerspie gelt</w>
vor gebracht</w>
ul tra
transpar ente</w>
r uns</w>
ne in</w>
inves ted</w>
gewal t
analy sieren</w>
Tran sit
verschie ben</w>
pass ungen</w>
for th</w>
dela yed</w>
bri cht</w>
ab ri
Nachtei le</w>
Glob al</w>
Fortsch ritten</w>
Dat um</w>
Comm uni
Bestre ben</w>
Akzeptan z</w>
quanti ties</w>
qualifizi erter</w>
igh t
ge ziel
ex ert</w>
bla ck
aufge worfen</w>
aim ing</w>
R ü
Geld wä
Ex port</w>
Auf stellung</w>
An zeichen</w>
ün de</w>
verknüpf t</w>
unter zeichnen</w>
trieben en</w>
spec ul
schnellst möglich</w>
portugi esische</w>
plötz lich</w>
kamp f</w>
in put</w>
gewöhn lich</w>
ent schuldigen</w>
en forced</w>
bli cken</w>
Y esterday</w>
Sm all</w>
Si ed
Hung er</w>
Del ors</w>
profi le</w>
norm al
dür ften</w>
Unions bürger</w>
S W
M ess
La w</w>
E T
Da von</w>
Cash man</w>
än ge</w>
notic ed</w>
lu c
lie ß</w>
dopp elt</w>
dedi cated</w>
block iert</w>
all y-
Vorsitz es</w>
Gesetz es</w>
Gen fer</w>
F lag
zerstör en</w>
publi cation</w>
g ingen</w>
beträcht lichen</w>
Finanz dienstleistungen</w>
stab ile</w>
schw ung</w>
peripher al</w>
fa ster</w>
bi ological</w>
betra chte</w>
appe arance</w>
Tschech ischen</w>
Privati sierung</w>
Finanz minister</w>
stär kt</w>
respon ds</w>
pre ference</w>
pla cement</w>
mi x</w>
gesetz te</w>
fle ets</w>
em b
co st-
aus stattung</w>
Ar gentin
tes tens</w>
p ity</w>
enor m</w>
Ver bo
Klein -</w>
Ar ticles</w>
rec ital</w>
n d</w>
macro -
ir gen
ermu tigt</w>
ec k</w>
ausge gangen</w>
Luft verkehr</w>
Glei che</w>
Ges ell
Europar at</w>
ta ire</w>
on ment</w>
main streaming</w>
k tu
erzeu gt</w>
d den</w>
Schwell en
J ur
verhäl tnisse</w>
lässi ge</w>
er wer
encoura gement</w>
dor f</w>
cell or</w>
bet one</w>
Urhe ber
Jahre stag</w>
B at
wi de-
ver setzt</w>
posi tively</w>
lin dustrie</w>
beur teilt</w>
bann ing</w>
aband oned</w>
Zwis ch
O b</w>
Indones ien</w>
Generaldire ktion</w>
Entschließungs antrags</w>
Bedauer licherweise</w>
Analy sen</w>
zu gang</w>
t one</w>
secon dary</w>
rei fen</w>
per form</w>
er in</w>
ein gehend</w>
Seever kehr</w>
Initiativ bericht</w>
Gleich berechtigung</w>
Cre ev
uni fied</w>
räum t</w>
organiz ed</w>
o gen</w>
hy dro
ger er</w>
gel aden</w>
enz eit</w>
ehr endt</w>
diesbezü gliche</w>
Un recht</w>
Umwelt -</w>
Mob il
Mc Creev
[...]
